<unk>	0
<s>	0
</s>	0
<|n|>	0
<|endoftext|>	0
▁п	-0
▁н	-1
▁с	-2
▁в	-3
то	-4
▁—	-5
ал	-6
ко	-7
▁о	-8
▁и	-9
но	-10
ро	-11
ер	-12
▁по	-13
ен	-14
ст	-15
ра	-16
ка	-17
го	-18
▁д	-19
▁не	-20
ла	-21
▁б	-22
▁м	-23
▁т	-24
▁на	-25
ли	-26
ри	-27
ло	-28
▁з	-29
ет	-30
ни	-31
на	-32
ть	-33
▁ч	-34
ль	-35
ся	-36
во	-37
▁у	-38
ва	-39
ре	-40
ну	-41
▁ко	-42
ны	-43
ки	-44
да	-45
сь	-46
ле	-47
▁за	-48
▁к	-49
ру	-50
▁Н	-51
ем	-52
ми	-53
▁что	-54
же	-55
▁е	-56
ви	-57
ти	-58
де	-59
ди	-60
▁В	-61
ма	-62
не	-63
до	-64
▁бы	-65
▁то	-66
▁ка	-67
▁П	-68
та	-69
▁г	-70
▁во	-71
▁ра	-72
▁от	-73
те	-74
ры	-75
ля	-76
▁О	-77
▁К	-78
ала	-79
хо	-80
▁э	-81
▁вы	-82
▁Т	-83
по	-84
ед	-85
▁при	-86
чи	-87
▁про	-88
▁го	-89
▁до	-90
▁мо	-91
аль	-92
ени	-93
▁С	-94
ши	-95
..	-96
...	-97
ше	-98
▁со	-99
мо	-100
▁из	-101
▁Г	-102
лу	-103
се	-104
бо	-105
▁я	-106
али	-107
жи	-108
ку	-109
▁та	-110
ве	-111
▁Д	-112
▁А	-113
ере	-114
▁И	-115
▁ни	-116
га	-117
▁М	-118
ня	-119
ду	-120
шь	-121
щи	-122
ще	-123
▁а	-124
каз	-125
▁те	-126
нул	-127
▁это	-128
▁По	-129
ча	-130
че	-131
лю	-132
▁об	-133
сти	-134
▁но	-135
▁как	-136
▁Я	-137
ста	-138
си	-139
ря	-140
му	-141
вер	-142
▁под	-143
ги	-144
сть	-145
ме	-146
▁раз	-147
▁бо	-148
▁де	-149
енно	-150
сто	-151
ву	-152
ар	-153
▁Б	-154
со	-155
за	-156
бе	-157
бы	-158
па	-159
▁ст	-160
▁Э	-161
ша	-162
вы	-163
▁Не	-164
кой	-165
▁ты	-166
▁кото	-167
лы	-168
едь	-169
▁он	-170
▁Гер	-171
▁Л	-172
▁Гераль	-173
пи	-174
жа	-175
▁же	-176
▁хо	-177
ной	-178
▁все	-179
ты	-180
ный	-181
вал	-182
гда	-183
са	-184
▁Ц	-185
▁Р	-186
би	-187
▁Геральт	-188
▁ру	-189
ные	-190
▁пре	-191
▁З	-192
тель	-193
▁Ци	-194
▁бе	-195
▁ли	-196
едьма	-197
нула	-198
▁зна	-199
лся	-200
▁ме	-201
ды	-202
ца	-203
ться	-204
▁сказ	-205
ско	-206
бя	-207
▁Ч	-208
▁его	-209
▁ви	-210
▁она	-211
▁ре	-212
▁да	-213
ке	-214
уд	-215
ень	-216
ало	-217
лько	-218
ей	-219
▁*	-220
▁сто	-221
еня	-222
ски	-223
▁Цири	-224
спо	-225
вет	-226
ного	-227
▁На	-228
ба	-229
▁ва	-230
▁Но	-231
▁так	-232
▁Ка	-233
▁ее	-234
ему	-235
▁вз	-236
▁Ко	-237
▁се	-238
це	-239
ком	-240
▁голо	-241
ная	-242
▁ведьма	-243
ется	-244
гу	-245
ешь	-246
ют	-247
ных	-248
▁х	-249
пу	-250
сли	-251
иль	-252
вши	-253
▁У	-254
▁было	-255
ту	-256
▁меня	-257
▁ж	-258
ство	-259
пе	-260
▁са	-261
пер	-262
▁ле	-263
▁ш	-264
ным	-265
ение	-266
вая	-267
▁ф	-268
вать	-269
жно	-270
сно	-271
ци	-272
▁рас	-273
чно	-274
вно	-275
▁Е	-276
ющи	-277
▁пере	-278
▁ми	-279
▁дру	-280
вори	-281
мы	-282
▁Ф	-283
▁гла	-284
▁ма	-285
▁ве	-286
лась	-287
ща	-288
▁которы	-289
ут	-290
нт	-291
▁Х	-292
▁тебя	-293
ор	-294
ения	-295
рем	-296
▁«	-297
ром	-298
лен	-299
вали	-300
▁ку	-301
▁лю	-302
▁сво	-303
нь	-304
▁Ты	-305
про	-306
▁ло	-307
▁Лю	-308
▁пос	-309
▁мы	-310
тя	-311
зи	-312
▁Да	-313
▁Он	-314
зо	-315
▁уже	-316
тельно	-317
▁еще	-318
льф	-319
том	-320
▁ча	-321
▁воз	-322
рав	-323
▁мне	-324
▁сказал	-325
▁Й	-326
дей	-327
гля	-328
▁им	-329
▁од	-330
ров	-331
дин	-332
▁сло	-333
▁си	-334
лись	-335
▁пер	-336
▁Люти	-337
ска	-338
▁чтобы	-339
пы	-340
▁ду	-341
▁су	-342
▁че	-343
▁Та	-344
▁Это	-345
ск	-346
▁Во	-347
енни	-348
дя	-349
тому	-350
нима	-351
ха	-352
эр	-353
лет	-354
▁Она	-355
▁вер	-356
▁кра	-357
чь	-358
▁был	-359
мер	-360
▁Что	-361
чу	-362
ался	-363
ние	-364
жет	-365
дел	-366
вой	-367
▁только	-368
▁коро	-369
▁чу	-370
▁боль	-371
кры	-372
▁ба	-373
ств	-374
тся	-375
дом	-376
▁сле	-377
сы	-378
нно	-379
жал	-380
зна	-381
ков	-382
▁дол	-383
▁Ну	-384
▁За	-385
▁их	-386
зу	-387
нулся	-388
▁бу	-389
ена	-390
▁ста	-391
дет	-392
▁жи	-393
об	-394
▁слу	-395
▁буд	-396
енниф	-397
▁Йенниф	-398
▁Лютик	-399
▁Йеннифэр	-400
ния	-401
су	-402
▁врем	-403
▁па	-404
▁чем	-405
зы	-406
дер	-407
▁когда	-408
ками	-409
▁кон	-410
▁пу	-411
вала	-412
▁глаза	-413
▁тебе	-414
▁Ни	-415
▁ведьмак	-416
сту	-417
ную	-418
ети	-419
▁То	-420
▁чер	-421
▁они	-422
▁ше	-423
▁стра	-424
сте	-425
вя	-426
бу	-427
▁была	-428
рой	-429
▁ро	-430
▁пред	-431
ге	-432
цы	-433
▁кри	-434
▁него	-435
▁нас	-436
лось	-437
жен	-438
дно	-439
▁ск	-440
чего	-441
ят	-442
сс	-443
стро	-444
ник	-445
▁ус	-446
ными	-447
▁того	-448
▁для	-449
чал	-450
▁без	-451
нов	-452
кнул	-453
▁Бо	-454
▁Вы	-455
▁Мо	-456
руг	-457
дела	-458
ходи	-459
шо	-460
▁если	-461
▁тоже	-462
▁даже	-463
▁кто	-464
ном	-465
гла	-466
мен	-467
жу	-468
кра	-469
▁тво	-470
▁Го	-471
щу	-472
▁ему	-473
▁тем	-474
▁чаро	-475
шу	-476
ству	-477
кая	-478
ней	-479
▁полу	-480
▁ры	-481
▁Со	-482
ери	-483
кие	-484
▁ла	-485
▁тут	-486
цо	-487
гаар	-488
▁пла	-489
йся	-490
ыр	-491
▁помо	-492
▁спо	-493
▁оста	-494
▁гля	-495
▁нет	-496
мот	-497
▁уда	-498
бой	-499
удь	-500
алась	-501
▁или	-502
▁мол	-503
▁были	-504
▁лу	-505
стви	-506
▁оч	-507
▁после	-508
нова	-509
хи	-510
чка	-511
▁ки	-512
▁Ра	-513
▁Про	-514
▁Нет	-515
▁Хо	-516
рт	-517
ья	-518
пра	-519
▁му	-520
▁пи	-521
▁может	-522
ез	-523
▁тру	-524
жд	-525
▁До	-526
хва	-527
▁Как	-528
▁есть	-529
вор	-530
▁там	-531
▁ско	-532
▁взгля	-533
юще	-534
▁говори	-535
алось	-536
кое	-537
▁госпо	-538
ера	-539
ленно	-540
але	-541
▁ти	-542
десь	-543
▁гу	-544
▁время	-545
нее	-546
рет	-547
нал	-548
▁пе	-549
ались	-550
▁эльф	-551
нулась	-552
гра	-553
дна	-554
ства	-555
тов	-556
он	-557
шка	-558
▁себя	-559
перь	-560
ете	-561
▁ту	-562
лове	-563
▁Если	-564
сем	-565
▁При	-566
нец	-567
▁Ре	-568
▁быть	-569
▁нее	-570
лаго	-571
▁нем	-572
▁сказала	-573
чески	-574
▁От	-575
▁Ведьма	-576
▁голову	-577
говори	-578
▁пол	-579
▁над	-580
▁Ви	-581
сты	-582
ене	-583
▁пра	-584
рь	-585
лыш	-586
вшись	-587
ких	-588
дол	-589
кон	-590
сле	-591
▁знаю	-592
▁Мы	-593
нял	-594
▁Так	-595
▁потому	-596
▁зам	-597
▁поч	-598
▁ша	-599
пусти	-600
▁будет	-601
шей	-602
▁надо	-603
ню	-604
вает	-605
вай	-606
▁ничего	-607
стре	-608
▁Ш	-609
дум	-610
прав	-611
▁меч	-612
пол	-613
юсь	-614
».	-615
ясь	-616
вля	-617
воль	-618
▁Ри	-619
▁чародей	-620
▁Ведьмак	-621
▁Те	-622
вто	-623
▁подо	-624
ким	-625
▁кро	-626
▁которо	-627
вил	-628
▁поз	-629
▁ответ	-630
ровь	-631
▁дер	-632
▁вам	-633
▁больше	-634
его	-635
▁Три	-636
▁Пре	-637
▁снова	-638
кий	-639
ное	-640
▁ну	-641
или	-642
▁чере	-643
▁который	-644
ять	-645
▁Они	-646
▁вас	-647
▁очень	-648
сом	-649
▁само	-650
хвати	-651
лей	-652
сси	-653
▁пы	-654
ит	-655
будь	-656
нуть	-657
дни	-658
гаард	-659
ан	-660
бра	-661
сил	-662
чит	-663
вра	-664
дь	-665
▁этом	-666
▁гру	-667
▁мог	-668
▁расс	-669
ены	-670
мни	-671
▁них	-672
шел	-673
▁ис	-674
ман	-675
▁Миль	-676
▁ря	-677
жида	-678
▁Зна	-679
▁бро	-680
нибудь	-681
▁здесь	-682
тан	-683
▁ей	-684
стя	-685
чки	-686
кло	-687
▁ост	-688
▁дело	-689
▁вой	-690
ван	-691
жда	-692
кого	-693
стра	-694
ин	-695
шли	-696
▁сторо	-697
▁ог	-698
вый	-699
▁словно	-700
чала	-701
▁глу	-702
▁свет	-703
▁себе	-704
▁этого	-705
пре	-706
ской	-707
их	-708
жала	-709
▁уби	-710
▁поло	-711
▁дела	-712
▁пока	-713
▁гор	-714
▁Ве	-715
ствен	-716
▁можно	-717
▁короле	-718
стоя	-719
ках	-720
▁руки	-721
▁нам	-722
фор	-723
▁ц	-724
▁Все	-725
▁обра	-726
рю	-727
▁потом	-728
ил	-729
ственно	-730
▁ней	-731
▁челове	-732
▁быстро	-733
▁дви	-734
▁эти	-735
▁воло	-736
▁мед	-737
▁уви	-738
▁один	-739
▁уж	-740
стью	-741
рил	-742
казы	-743
▁пот	-744
сколько	-745
▁улы	-746
▁доро	-747
▁зем	-748
гой	-749
▁спи	-750
кто	-751
рая	-752
▁пле	-753
час	-754
▁тра	-755
▁чего	-756
▁хоте	-757
▁которые	-758
▁тре	-759
нтере	-760
зя	-761
▁обо	-762
▁дей	-763
той	-764
▁ди	-765
▁ок	-766
▁нео	-767
▁Де	-768
при	-769
ейчас	-770
▁Одна	-771
▁лоша	-772
когда	-773
▁стоя	-774
тра	-775
ением	-776
снолю	-777
▁пря	-778
▁где	-779
жать	-780
ющих	-781
▁Трисс	-782
▁ос	-783
▁сол	-784
▁том	-785
зь	-786
род	-787
нет	-788
▁вот	-789
щая	-790
▁име	-791
▁дума	-792
▁нильф	-793
им	-794
вство	-795
каза	-796
конец	-797
▁понима	-798
▁теперь	-799
▁Ж	-800
тно	-801
ружи	-802
▁ши	-803
▁маги	-804
нии	-805
▁кровь	-806
▁повер	-807
▁через	-808
▁зу	-809
кнула	-810
▁сп	-811
шего	-812
кую	-813
▁ска	-814
чем	-815
пера	-816
вался	-817
▁случа	-818
рен	-819
ника	-820
вые	-821
гыр	-822
ющие	-823
▁пар	-824
▁могу	-825
▁це	-826
▁вд	-827
▁боле	-828
дой	-829
▁иск	-830
▁этот	-831
чил	-832
▁обе	-833
вало	-834
юда	-835
▁силь	-836
▁повто	-837
▁продол	-838
нем	-839
шая	-840
шки	-841
▁проговори	-842
можно	-843
▁холо	-844
▁луч	-845
▁други	-846
▁Мильва	-847
▁руку	-848
▁сер	-849
▁улыб	-850
▁соб	-851
цу	-852
жду	-853
рую	-854
▁жен	-855
▁рез	-856
лом	-857
▁Из	-858
▁Яр	-859
▁уди	-860
стави	-861
лин	-862
рин	-863
нови	-864
ются	-865
▁зак	-866
▁перед	-867
▁гра	-868
тив	-869
стно	-870
яс	-871
ваться	-872
нд	-873
▁кор	-874
▁Фили	-875
из	-876
дать	-877
▁ведьмака	-878
нок	-879
ом	-880
▁каж	-881
под	-882
ильф	-883
ющий	-884
▁чет	-885
дели	-886
▁просто	-887
дца	-888
чку	-889
шком	-890
три	-891
▁кол	-892
▁ком	-893
▁лег	-894
ху	-895
▁Однако	-896
▁подум	-897
▁спокой	-898
бер	-899
▁ним	-900
▁Когда	-901
вь	-902
▁тя	-903
▁вол	-904
▁Нильф	-905
нце	-906
▁подня	-907
мя	-908
▁стре	-909
ции	-910
ница	-911
рошо	-912
▁много	-913
▁господин	-914
слу	-915
▁ды	-916
▁деву	-917
▁спро	-918
ев	-919
деть	-920
▁прав	-921
соб	-922
тый	-923
▁кре	-924
▁немного	-925
▁Кра	-926
▁поэ	-927
жна	-928
▁дра	-929
▁вдруг	-930
▁нильфгаард	-931
▁дево	-932
фе	-933
дох	-934
шла	-935
▁благо	-936
вед	-937
дил	-938
▁кру	-939
жешь	-940
дит	-941
▁бур	-942
▁два	-943
что	-944
▁Ди	-945
держи	-946
▁знаешь	-947
жение	-948
▁лицо	-949
вых	-950
дови	-951
клони	-952
жиданно	-953
▁Потому	-954
▁лет	-955
обра	-956
▁гро	-957
▁дере	-958
▁которой	-959
бро	-960
нала	-961
▁тот	-962
▁три	-963
▁Ча	-964
кт	-965
▁такой	-966
▁краснолю	-967
▁женщи	-968
ур	-969
▁Са	-970
▁ар	-971
чина	-972
чита	-973
▁Кто	-974
▁бли	-975
▁мал	-976
щую	-977
▁Ва	-978
▁Виль	-979
▁несколько	-980
ель	-981
тор	-982
▁р	-983
нес	-984
ятно	-985
▁сви	-986
▁Эй	-987
▁пр	-988
▁вст	-989
гефор	-990
чен	-991
мени	-992
▁Вер	-993
▁жиз	-994
▁паль	-995
▁всего	-996
вен	-997
▁Ма	-998
нули	-999
▁высо	-1000
мет	-1001
▁Ан	-1002
▁Ла	-1003
▁Вильгефор	-1004
▁тол	-1005
▁смер	-1006
▁долго	-1007
воря	-1008
▁бле	-1009
▁которых	-1010
▁Эм	-1011
▁буду	-1012
бли	-1013
▁следу	-1014
▁тогда	-1015
дал	-1016
пря	-1017
▁кры	-1018
кти	-1019
▁пло	-1020
▁наконец	-1021
▁зо	-1022
ально	-1023
шенно	-1024
чить	-1025
▁Цинт	-1026
▁теле	-1027
лишком	-1028
жели	-1029
▁вме	-1030
▁воро	-1031
▁позво	-1032
пал	-1033
▁действи	-1034
дов	-1035
чет	-1036
▁тер	-1037
▁будто	-1038
▁слова	-1039
▁ника	-1040
ум	-1041
вым	-1042
▁вс	-1043
▁одна	-1044
▁слыш	-1045
▁тому	-1046
▁хоть	-1047
дем	-1048
роде	-1049
жде	-1050
▁фи	-1051
ники	-1052
ская	-1053
▁сме	-1054
▁внима	-1055
эн	-1056
бле	-1057
▁кар	-1058
ерт	-1059
▁ще	-1060
прави	-1061
бор	-1062
▁кам	-1063
▁всегда	-1064
▁Бы	-1065
▁сед	-1066
▁тор	-1067
▁которого	-1068
▁медленно	-1069
пел	-1070
ений	-1071
▁ю	-1072
▁сту	-1073
разу	-1074
▁пой	-1075
▁интере	-1076
▁вла	-1077
нечно	-1078
▁вся	-1079
▁самы	-1080
▁знал	-1081
▁доста	-1082
йте	-1083
ваясь	-1084
▁Бона	-1085
нув	-1086
цар	-1087
▁рядом	-1088
ходя	-1089
▁Мне	-1090
▁глаз	-1091
▁замети	-1092
ция	-1093
шен	-1094
▁дро	-1095
▁свя	-1096
▁сейчас	-1097
▁вет	-1098
▁обы	-1099
▁Им	-1100
▁тро	-1101
▁прер	-1102
▁тихо	-1103
емы	-1104
▁Бе	-1105
▁кня	-1106
▁жела	-1107
фи	-1108
ваю	-1109
вое	-1110
ним	-1111
▁сказа	-1112
▁головой	-1113
бира	-1114
вели	-1115
▁оказ	-1116
▁которую	-1117
гер	-1118
▁Ми	-1119
ении	-1120
▁вели	-1121
▁более	-1122
▁никогда	-1123
сло	-1124
ников	-1125
сколь	-1126
▁прямо	-1127
ских	-1128
ского	-1129
▁всех	-1130
▁лишь	-1131
▁поня	-1132
точно	-1133
ступи	-1134
▁мало	-1135
▁сдела	-1136
▁Реги	-1137
▁импера	-1138
вшие	-1139
вших	-1140
мотре	-1141
йк	-1142
вом	-1143
еть	-1144
кла	-1145
лой	-1146
▁Ме	-1147
▁ри	-1148
вают	-1149
▁свер	-1150
▁мор	-1151
▁вопро	-1152
▁глядя	-1153
»,	-1154
сила	-1155
▁сре	-1156
▁суще	-1157
▁Только	-1158
чать	-1159
▁бере	-1160
▁ведь	-1161
▁стол	-1162
раз	-1163
▁Ли	-1164
▁сы	-1165
тые	-1166
твер	-1167
▁спа	-1168
вез	-1169
▁сдел	-1170
▁Геральта	-1171
▁проговорил	-1172
▁кого	-1173
▁прекра	-1174
дить	-1175
▁коня	-1176
вались	-1177
▁почти	-1178
воло	-1179
▁муж	-1180
▁верно	-1181
▁людей	-1182
дешь	-1183
енной	-1184
▁Филип	-1185
гом	-1186
шно	-1187
▁хочу	-1188
ов	-1189
щих	-1190
▁день	-1191
▁любо	-1192
пыт	-1193
▁Риен	-1194
гнул	-1195
▁изве	-1196
лья	-1197
▁Ти	-1198
▁уг	-1199
кел	-1200
вший	-1201
▁бан	-1202
ила	-1203
пле	-1204
щие	-1205
чали	-1206
▁Коро	-1207
бр	-1208
кам	-1209
пла	-1210
щий	-1211
куда	-1212
▁взя	-1213
▁либо	-1214
▁какой	-1215
дино	-1216
▁неожиданно	-1217
ех	-1218
нут	-1219
мент	-1220
▁огром	-1221
ний	-1222
ешься	-1223
▁Скел	-1224
сел	-1225
▁спокойно	-1226
▁чи	-1227
ступ	-1228
шься	-1229
ью	-1230
ших	-1231
знач	-1232
▁никто	-1233
от	-1234
▁дев	-1235
▁сов	-1236
▁сере	-1237
▁совер	-1238
▁мг	-1239
обще	-1240
▁такое	-1241
шля	-1242
▁Зо	-1243
нный	-1244
▁Раз	-1245
▁ночь	-1246
▁реши	-1247
ющего	-1248
▁гром	-1249
жали	-1250
ские	-1251
▁видел	-1252
льзо	-1253
▁каз	-1254
▁люди	-1255
▁сразу	-1256
пло	-1257
стер	-1258
валась	-1259
▁схвати	-1260
▁слишком	-1261
фа	-1262
рети	-1263
жения	-1264
▁Дийк	-1265
▁Кагыр	-1266
▁крикнул	-1267
гло	-1268
▁Поч	-1269
▁вто	-1270
▁Регис	-1271
хот	-1272
ливо	-1273
ский	-1274
▁объ	-1275
▁опа	-1276
дишь	-1277
▁смо	-1278
▁чароде	-1279
зе	-1280
▁мя	-1281
▁дву	-1282
сторо	-1283
роятно	-1284
▁между	-1285
▁Бонарт	-1286
уй	-1287
лина	-1288
▁знать	-1289
▁тобой	-1290
йти	-1291
▁ин	-1292
▁мгнов	-1293
ьез	-1294
ению	-1295
носи	-1296
▁Под	-1297
альше	-1298
▁лучше	-1299
жды	-1300
льт	-1301
дите	-1302
нить	-1303
царь	-1304
▁опусти	-1305
▁хорошо	-1306
▁действительно	-1307
сен	-1308
▁Вот	-1309
▁сам	-1310
▁небо	-1311
правля	-1312
▁должен	-1313
▁чудови	-1314
иг	-1315
гов	-1316
тки	-1317
лете	-1318
▁чув	-1319
алант	-1320
ление	-1321
▁испо	-1322
▁сказать	-1323
▁Вильгефорц	-1324
▁сла	-1325
▁всем	-1326
▁знает	-1327
▁ответил	-1328
хе	-1329
дами	-1330
▁Поэ	-1331
гы	-1332
вую	-1333
того	-1334
▁тех	-1335
▁вздох	-1336
рщи	-1337
▁рабо	-1338
▁волосы	-1339
лон	-1340
▁сюда	-1341
▁разго	-1342
▁Ста	-1343
▁другой	-1344
ить	-1345
цев	-1346
вается	-1347
▁Ло	-1348
ницы	-1349
стой	-1350
▁возду	-1351
▁Теперь	-1352
▁почему	-1353
▁руками	-1354
ложи	-1355
сили	-1356
▁Пер	-1357
▁оши	-1358
▁хра	-1359
▁согла	-1360
▁Ст	-1361
▁времени	-1362
все	-1363
еду	-1364
тил	-1365
кото	-1366
дд	-1367
▁спе	-1368
▁одно	-1369
▁хотел	-1370
▁которая	-1371
вого	-1372
стом	-1373
▁Бро	-1374
▁моло	-1375
▁Может	-1376
▁молча	-1377
▁рукой	-1378
▁королев	-1379
▁следует	-1380
бри	-1381
хом	-1382
▁недо	-1383
емо	-1384
лез	-1385
▁Па	-1386
луша	-1387
▁пры	-1388
▁сте	-1389
док	-1390
сов	-1391
шку	-1392
шую	-1393
▁зе	-1394
▁неве	-1395
дар	-1396
мся	-1397
сса	-1398
кими	-1399
▁бес	-1400
▁вос	-1401
▁лов	-1402
▁произ	-1403
▁вообще	-1404
жны	-1405
гами	-1406
доро	-1407
чешь	-1408
▁именно	-1409
▁наклони	-1410
ир	-1411
лый	-1412
риа	-1413
тая	-1414
лены	-1415
рази	-1416
▁Зол	-1417
▁почу	-1418
алантэ	-1419
▁Госпо	-1420
▁исклю	-1421
▁счита	-1422
▁Калантэ	-1423
зад	-1424
бами	-1425
нием	-1426
▁хва	-1427
▁приня	-1428
блю	-1429
ску	-1430
вора	-1431
дарь	-1432
▁Гла	-1433
▁нес	-1434
▁весь	-1435
▁малень	-1436
нные	-1437
▁золо	-1438
▁покры	-1439
тых	-1440
родей	-1441
▁такие	-1442
▁Филиппа	-1443
воз	-1444
реа	-1445
ток	-1446
▁Ле	-1447
нами	-1448
▁пыта	-1449
▁потер	-1450
дня	-1451
жалуй	-1452
▁увер	-1453
▁резко	-1454
▁чародейка	-1455
ими	-1456
тия	-1457
тами	-1458
▁дум	-1459
▁сти	-1460
▁убе	-1461
ший	-1462
▁уз	-1463
▁фор	-1464
▁Чародей	-1465
щей	-1466
стве	-1467
▁поя	-1468
вольно	-1469
▁назад	-1470
пя	-1471
гая	-1472
▁фа	-1473
▁Ведь	-1474
▁коле	-1475
▁хотя	-1476
▁возможно	-1477
бря	-1478
лик	-1479
нен	-1480
рые	-1481
чек	-1482
рила	-1483
ления	-1484
▁Ангу	-1485
▁скры	-1486
▁крови	-1487
▁равно	-1488
чо	-1489
ненно	-1490
▁запа	-1491
▁назы	-1492
▁зву	-1493
дцать	-1494
казал	-1495
▁забы	-1496
лагода	-1497
чилось	-1498
▁Риенс	-1499
▁Ничего	-1500
▁подумал	-1501
вел	-1502
льзя	-1503
нной	-1504
рода	-1505
хнул	-1506
▁защи	-1507
▁голос	-1508
▁солда	-1509
шек	-1510
наче	-1511
щего	-1512
▁тяже	-1513
▁должна	-1514
▁человек	-1515
▁бар	-1516
▁Ангуле	-1517
шло	-1518
▁помощ	-1519
чительно	-1520
возь	-1521
▁мной	-1522
▁Му	-1523
шать	-1524
▁Тем	-1525
вание	-1526
▁губы	-1527
▁дале	-1528
▁напо	-1529
▁цвет	-1530
▁этой	-1531
жит	-1532
лые	-1533
▁кив	-1534
▁фыр	-1535
▁мило	-1536
▁выгля	-1537
▁говоря	-1538
▁поднял	-1539
▁совсем	-1540
▁достаточно	-1541
сами	-1542
▁неу	-1543
▁исто	-1544
▁люби	-1545
▁способ	-1546
▁спросил	-1547
дут	-1548
пен	-1549
рей	-1550
▁Знаю	-1551
▁буркнул	-1552
ae	-1553
стей	-1554
▁пом	-1555
▁усме	-1556
▁Золтан	-1557
ряд	-1558
пере	-1559
ское	-1560
▁поб	-1561
▁друг	-1562
ствует	-1563
▁одного	-1564
шим	-1565
ском	-1566
чила	-1567
▁бол	-1568
праши	-1569
▁коман	-1570
▁Нильфгаар	-1571
▁почувство	-1572
тер	-1573
чер	-1574
▁ор	-1575
емся	-1576
▁оби	-1577
▁эта	-1578
вшего	-1579
▁сильно	-1580
▁останови	-1581
▁Ду	-1582
▁Ту	-1583
цами	-1584
▁Кры	-1585
▁обя	-1586
▁пор	-1587
▁против	-1588
▁сторону	-1589
вод	-1590
▁мой	-1591
▁уго	-1592
▁Почему	-1593
▁вместе	-1594
▁Дийкстра	-1595
хра	-1596
▁бра	-1597
▁успе	-1598
▁Потом	-1599
▁жизнь	-1600
▁могла	-1601
▁повторил	-1602
зом	-1603
▁мил	-1604
▁отс	-1605
▁Ярре	-1606
▁ними	-1607
нах	-1608
тье	-1609
▁Пу	-1610
▁жа	-1611
скать	-1612
▁куда	-1613
сла	-1614
тка	-1615
шие	-1616
сить	-1617
чный	-1618
▁Даже	-1619
ями	-1620
▁ха	-1621
▁тря	-1622
матри	-1623
▁встре	-1624
рез	-1625
дума	-1626
▁Мар	-1627
▁ужа	-1628
ности	-1629
▁мину	-1630
нулись	-1631
нувшись	-1632
▁момент	-1633
▁дет	-1634
▁оде	-1635
ставля	-1636
хнулся	-1637
▁головы	-1638
▁случае	-1639
тр	-1640
дан	-1641
кар	-1642
▁мир	-1643
вания	-1644
врати	-1645
кля	-1646
нки	-1647
воро	-1648
пала	-1649
▁Воз	-1650
▁бед	-1651
▁сама	-1652
ровать	-1653
▁холодно	-1654
▁совершенно	-1655
гре	-1656
▁навер	-1657
▁протя	-1658
▁распо	-1659
▁среди	-1660
▁л	-1661
хар	-1662
алла	-1663
вари	-1664
▁ноги	-1665
▁туда	-1666
▁место	-1667
▁серьез	-1668
мой	-1669
ворю	-1670
▁вра	-1671
▁обяза	-1672
▁также	-1673
▁Предна	-1674
гка	-1675
лов	-1676
▁шу	-1677
тать	-1678
▁безо	-1679
▁длин	-1680
▁делать	-1681
▁Нильфгаард	-1682
ден	-1683
мол	-1684
сок	-1685
▁ль	-1686
▁ого	-1687
▁глазами	-1688
мея	-1689
нер	-1690
рее	-1691
валь	-1692
лага	-1693
▁баш	-1694
▁нач	-1695
▁живо	-1696
▁свой	-1697
чество	-1698
▁Броки	-1699
▁вампи	-1700
вери	-1701
дила	-1702
▁меча	-1703
▁осно	-1704
▁видела	-1705
▁сквозь	-1706
▁которое	-1707
нил	-1708
пор	-1709
реть	-1710
▁мно	-1711
▁отвер	-1712
▁значит	-1713
▁ци	-1714
▁слегка	-1715
▁взглядом	-1716
▁Предназнач	-1717
ема	-1718
▁Ку	-1719
▁деся	-1720
▁места	-1721
▁рыцарь	-1722
▁Скеллен	-1723
круг	-1724
▁наз	-1725
▁сбе	-1726
▁наде	-1727
▁знала	-1728
ях	-1729
дро	-1730
рый	-1731
нали	-1732
▁Пере	-1733
▁госу	-1734
▁широ	-1735
▁мечом	-1736
▁холод	-1737
▁можешь	-1738
▁послед	-1739
▁продолжал	-1740
бен	-1741
чей	-1742
▁Ру	-1743
▁Фаль	-1744
▁Эмгыр	-1745
▁Поэтому	-1746
▁краснолюд	-1747
тал	-1748
пери	-1749
ющей	-1750
гнула	-1751
▁Высо	-1752
▁нами	-1753
▁понял	-1754
мом	-1755
щен	-1756
▁Ба	-1757
▁ху	-1758
боро	-1759
влен	-1760
нуло	-1761
▁спу	-1762
▁вско	-1763
▁заклина	-1764
▁подумала	-1765
ену	-1766
кре	-1767
жден	-1768
льте	-1769
▁моя	-1770
▁уме	-1771
▁крик	-1772
▁неза	-1773
▁очер	-1774
▁непри	-1775
▁дриа	-1776
▁землю	-1777
▁император	-1778
таки	-1779
чень	-1780
ющее	-1781
▁После	-1782
▁иначе	-1783
▁стало	-1784
▁удиви	-1785
▁трудом	-1786
ыре	-1787
▁Чер	-1788
▁узна	-1789
обходи	-1790
▁думаю	-1791
▁собой	-1792
▁других	-1793
▁короля	-1794
▁слышал	-1795
▁казалось	-1796
дра	-1797
эль	-1798
▁Надо	-1799
▁похо	-1800
▁Здесь	-1801
▁Слуша	-1802
▁одной	-1803
▁точно	-1804
▁дальше	-1805
▁девушка	-1806
▁подтвер	-1807
рыз	-1808
цов	-1809
льта	-1810
мина	-1811
▁выс	-1812
▁уни	-1813
▁хво	-1814
мотри	-1815
ринги	-1816
▁Боль	-1817
▁свою	-1818
▁оружи	-1819
▁раскры	-1820
▁заметил	-1821
тым	-1822
шее	-1823
▁гря	-1824
▁оты	-1825
▁вста	-1826
▁крас	-1827
▁друго	-1828
▁Фринги	-1829
▁конечно	-1830
лла	-1831
низ	-1832
чай	-1833
▁ги	-1834
вшая	-1835
дова	-1836
▁сот	-1837
▁удо	-1838
▁вовсе	-1839
▁сделать	-1840
чая	-1841
нное	-1842
пали	-1843
чной	-1844
▁ото	-1845
▁укра	-1846
▁чуть	-1847
▁явно	-1848
енного	-1849
▁ежели	-1850
▁своей	-1851
▁такая	-1852
▁которым	-1853
▁согласи	-1854
чат	-1855
щем	-1856
▁Его	-1857
▁пояс	-1858
шал	-1859
▁Мэ	-1860
дали	-1861
нная	-1862
стри	-1863
ющим	-1864
▁две	-1865
▁Стра	-1866
▁арми	-1867
▁захо	-1868
▁идет	-1869
▁кобы	-1870
▁прис	-1871
▁ради	-1872
▁скри	-1873
▁разма	-1874
▁чувство	-1875
гру	-1876
нти	-1877
▁мет	-1878
гляды	-1879
▁окру	-1880
▁Ярпен	-1881
▁нельзя	-1882
▁Ангулема	-1883
en	-1884
коло	-1885
тить	-1886
чения	-1887
▁зубы	-1888
▁свои	-1889
▁прежде	-1890
вол	-1891
лок	-1892
▁мер	-1893
▁мяг	-1894
▁милс	-1895
▁мира	-1896
▁вроде	-1897
▁выпол	-1898
▁говорю	-1899
вле	-1900
ниц	-1901
чке	-1902
▁га	-1903
▁Для	-1904
▁дня	-1905
▁сча	-1906
▁отве	-1907
▁руба	-1908
▁глубо	-1909
▁какие	-1910
▁Цинтры	-1911
▁смерть	-1912
▁Благода	-1913
▁девочка	-1914
алу	-1915
▁Ха	-1916
▁Еще	-1917
▁слы	-1918
ность	-1919
▁порт	-1920
▁громко	-1921
▁улыбнулся	-1922
крет	-1923
нных	-1924
пыта	-1925
чные	-1926
▁Там	-1927
▁наш	-1928
▁рука	-1929
альные	-1930
▁Тогда	-1931
▁беспо	-1932
▁молчал	-1933
▁потеря	-1934
▁эльфов	-1935
▁прервал	-1936
▁понимаешь	-1937
ea	-1938
рн	-1939
ген	-1940
ссе	-1941
вить	-1942
йдет	-1943
▁приз	-1944
▁черт	-1945
▁лошадь	-1946
нци	-1947
пля	-1948
шой	-1949
▁Кро	-1950
▁зло	-1951
▁Меня	-1952
▁доба	-1953
▁исче	-1954
▁столь	-1955
▁таких	-1956
▁некото	-1957
▁осторо	-1958
▁лошадей	-1959
▁Ее	-1960
няка	-1961
нять	-1962
чили	-1963
▁боя	-1964
▁оно	-1965
пнула	-1966
▁ошиб	-1967
диноро	-1968
▁краси	-1969
скольку	-1970
▁измени	-1971
▁король	-1972
▁стороны	-1973
кру	-1974
рал	-1975
щее	-1976
▁Ар	-1977
▁Ро	-1978
кому	-1979
▁язы	-1980
▁впол	-1981
▁креп	-1982
▁твоя	-1983
▁этим	-1984
▁бросил	-1985
▁прибли	-1986
▁чувству	-1987
лад	-1988
лки	-1989
▁Хи	-1990
▁яр	-1991
вира	-1992
▁Сто	-1993
▁све	-1994
▁Эльф	-1995
▁гото	-1996
вшийся	-1997
▁намер	-1998
▁прикры	-1999
тк	-2000
два	-2001
льзу	-2002
рами	-2003
ющая	-2004
▁Или	-2005
▁Ско	-2006
ровал	-2007
▁двор	-2008
нуться	-2009
▁Сейчас	-2010
▁кажется	-2011
тит	-2012
цен	-2013
▁би	-2014
▁тон	-2015
нется	-2016
чение	-2017
▁близ	-2018
▁выта	-2019
▁двух	-2020
▁попро	-2021
▁увидел	-2022
сит	-2023
жить	-2024
▁Тане	-2025
▁леса	-2026
▁мень	-2027
▁стал	-2028
▁какое	-2029
▁проти	-2030
▁собствен	-2031
гие	-2032
спе	-2033
▁Фа	-2034
▁Фо	-2035
▁пыт	-2036
▁поэт	-2037
▁драко	-2038
▁ребен	-2039
▁услыш	-2040
▁возвра	-2041
▁спиной	-2042
▁спраши	-2043
гах	-2044
кри	-2045
рон	-2046
рых	-2047
▁Ры	-2048
▁оз	-2049
воре	-2050
стал	-2051
▁сне	-2052
▁судь	-2053
жением	-2054
▁месте	-2055
▁начал	-2056
▁разве	-2057
▁хочешь	-2058
▁крикнула	-2059
лем	-2060
рить	-2061
▁изу	-2062
▁лес	-2063
▁эту	-2064
▁попа	-2065
▁темно	-2066
▁глазах	-2067
▁случай	-2068
пп	-2069
▁(	-2070
▁Си	-2071
▁гри	-2072
▁отсюда	-2073
лит	-2074
пом	-2075
выми	-2076
лови	-2077
читы	-2078
энне	-2079
▁Яру	-2080
▁осо	-2081
▁Риви	-2082
▁выра	-2083
▁моей	-2084
▁свобо	-2085
▁таким	-2086
▁призна	-2087
▁Чародейка	-2088
ne	-2089
кал	-2090
лых	-2091
рев	-2092
гать	-2093
ньше	-2094
▁охо	-2095
▁тыся	-2096
валось	-2097
▁Лютика	-2098
▁знаком	-2099
▁начала	-2100
▁четыре	-2101
▁поморщи	-2102
▁собственно	-2103
жил	-2104
кта	-2105
мая	-2106
нему	-2107
▁нау	-2108
▁ува	-2109
перед	-2110
▁зако	-2111
▁лица	-2112
▁ясно	-2113
▁потре	-2114
▁своих	-2115
▁подняла	-2116
цем	-2117
чным	-2118
▁мра	-2119
▁Деву	-2120
▁сего	-2121
▁Верно	-2122
▁город	-2123
▁комна	-2124
▁леген	-2125
▁пусть	-2126
▁вокруг	-2127
▁кровью	-2128
▁милсдарь	-2129
▁необходи	-2130
бок	-2131
цию	-2132
щим	-2133
дала	-2134
▁Бра	-2135
▁нос	-2136
ваешь	-2137
ступа	-2138
эннеке	-2139
▁плеча	-2140
▁предпо	-2141
▁Нэннеке	-2142
▁понимаю	-2143
лот	-2144
лым	-2145
стле	-2146
▁Где	-2147
▁Мор	-2148
▁пове	-2149
вшиеся	-2150
▁жизни	-2151
▁Именно	-2152
▁изобра	-2153
▁самого	-2154
вяз	-2155
шеб	-2156
рави	-2157
▁Гля	-2158
▁бой	-2159
▁дья	-2160
▁шпи	-2161
▁вспо	-2162
▁суме	-2163
▁существо	-2164
кли	-2165
▁Ги	-2166
вена	-2167
голь	-2168
гыра	-2169
рова	-2170
▁зат	-2171
▁зер	-2172
▁кни	-2173
▁рук	-2174
▁хле	-2175
ником	-2176
щение	-2177
▁поме	-2178
▁полно	-2179
▁Прости	-2180
▁приказ	-2181
дам	-2182
дне	-2183
нца	-2184
рия	-2185
▁Ше	-2186
чных	-2187
▁пят	-2188
дется	-2189
рован	-2190
ством	-2191
ходит	-2192
▁Есть	-2193
▁рыца	-2194
прочем	-2195
▁Фольте	-2196
▁правда	-2197
чон	-2198
льно	-2199
▁выр	-2200
▁нож	-2201
▁ожи	-2202
▁хол	-2203
▁вере	-2204
▁пора	-2205
▁твой	-2206
▁корот	-2207
▁далеко	-2208
▁другие	-2209
▁говорит	-2210
вар	-2211
них	-2212
▁пя	-2213
▁ум	-2214
▁бор	-2215
▁кур	-2216
▁мар	-2217
вайте	-2218
енное	-2219
▁Голо	-2220
▁прави	-2221
▁своим	-2222
▁глянул	-2223
▁сделал	-2224
▁ударил	-2225
▁хотела	-2226
жем	-2227
рок	-2228
▁Чу	-2229
▁уд	-2230
хать	-2231
▁вижу	-2232
▁воду	-2233
▁второй	-2234
▁начина	-2235
▁говорить	-2236
няя	-2237
рии	-2238
▁Ах	-2239
чкой	-2240
▁ибо	-2241
▁мат	-2242
▁мои	-2243
▁рот	-2244
▁прои	-2245
▁слово	-2246
▁Высого	-2247
бь	-2248
фу	-2249
жая	-2250
кро	-2251
пил	-2252
чик	-2253
ссен	-2254
▁Дру	-2255
▁Хот	-2256
▁шею	-2257
▁друи	-2258
▁исти	-2259
▁коло	-2260
▁напа	-2261
ческие	-2262
▁Мистле	-2263
▁должны	-2264
▁побери	-2265
эд	-2266
еры	-2267
нта	-2268
рица	-2269
▁сна	-2270
тянул	-2271
чится	-2272
▁Тебе	-2273
▁дога	-2274
▁звез	-2275
▁пого	-2276
▁сооб	-2277
▁Чтобы	-2278
▁встал	-2279
▁Говори	-2280
▁очеред	-2281
▁пробле	-2282
▁провор	-2283
▁женщина	-2284
▁серебря	-2285
▁наверняка	-2286
▁поскольку	-2287
▁проговорила	-2288
жай	-2289
мор	-2290
скую	-2291
ющую	-2292
▁Сле	-2293
▁всю	-2294
ствие	-2295
▁побе	-2296
скочил	-2297
▁Павет	-2298
▁воспо	-2299
▁держа	-2300
▁объяс	-2301
▁видеть	-2302
▁колени	-2303
▁лошади	-2304
▁котором	-2305
гал	-2306
дви	-2307
дко	-2308
бить	-2309
втра	-2310
тяги	-2311
▁Вен	-2312
▁Ска	-2313
▁Сол	-2314
▁сом	-2315
нного	-2316
▁кому	-2317
▁лежа	-2318
▁руке	-2319
▁свое	-2320
▁давно	-2321
▁исчез	-2322
▁невоз	-2323
▁скажу	-2324
▁помощь	-2325
▁скорее	-2326
▁состоя	-2327
▁милости	-2328
▁Господин	-2329
▁взглянул	-2330
ъе	-2331
ору	-2332
щил	-2333
▁Се	-2334
верь	-2335
преж	-2336
ющими	-2337
▁горя	-2338
▁приш	-2339
▁сдер	-2340
▁думал	-2341
▁преда	-2342
▁пальцы	-2343
▁усмехнулся	-2344
сая	-2345
сят	-2346
тах	-2347
дили	-2348
ским	-2349
▁боги	-2350
▁нему	-2351
▁руко	-2352
▁топо	-2353
чается	-2354
▁Никто	-2355
▁Ривии	-2356
▁какая	-2357
▁карти	-2358
▁непод	-2359
▁остро	-2360
ветству	-2361
ременно	-2362
▁Понима	-2363
▁вполне	-2364
▁должно	-2365
прежнему	-2366
▁позволи	-2367
▁чудовищ	-2368
жь	-2369
бно	-2370
вут	-2371
клю	-2372
▁ид	-2373
дает	-2374
▁Дор	-2375
▁нор	-2376
раздо	-2377
▁Стар	-2378
мотрел	-2379
▁Очень	-2380
▁завер	-2381
▁помни	-2382
▁седле	-2383
▁сопро	-2384
▁дорогу	-2385
▁пожалуй	-2386
лак	-2387
рос	-2388
ске	-2389
тую	-2390
шке	-2391
▁Бу	-2392
▁Пе	-2393
▁вар	-2394
▁опу	-2395
▁пти	-2396
▁шее	-2397
▁Чего	-2398
▁сами	-2399
▁удар	-2400
▁этих	-2401
▁раньше	-2402
▁Геральту	-2403
▁королева	-2404
▁Благодарю	-2405
▁исключительно	-2406
мах	-2407
вобо	-2408
мира	-2409
▁нена	-2410
▁поги	-2411
▁разу	-2412
▁убий	-2413
▁откры	-2414
▁кивнул	-2415
▁солдат	-2416
▁Конечно	-2417
▁ответила	-2418
▁чародейки	-2419
кус	-2420
лая	-2421
мар	-2422
▁Мол	-2423
▁зас	-2424
▁мое	-2425
▁Один	-2426
▁едва	-2427
▁забо	-2428
▁ближе	-2429
▁седла	-2430
▁благород	-2431
еди	-2432
лег	-2433
лью	-2434
мур	-2435
▁эк	-2436
▁кли	-2437
эльпи	-2438
▁быст	-2439
▁обна	-2440
▁хозя	-2441
казать	-2442
ческой	-2443
▁Пошли	-2444
▁свали	-2445
▁взгляд	-2446
сомненно	-2447
▁сегодня	-2448
▁вздохнул	-2449
мов	-2450
нию	-2451
нка	-2452
плы	-2453
дина	-2454
лого	-2455
него	-2456
▁воды	-2457
вшихся	-2458
▁обычно	-2459
▁интересу	-2460
пли	-2461
чий	-2462
▁Ио	-2463
вами	-2464
думы	-2465
▁той	-2466
▁шел	-2467
споко	-2468
▁ваше	-2469
▁край	-2470
▁пото	-2471
▁стар	-2472
▁повод	-2473
▁стоит	-2474
▁страш	-2475
▁откуда	-2476
▁прекрас	-2477
▁известно	-2478
▁улыбнулась	-2479
рие	-2480
▁ут	-2481
либо	-2482
няла	-2483
▁един	-2484
▁идти	-2485
▁низу	-2486
▁отли	-2487
▁соот	-2488
▁самое	-2489
▁стола	-2490
▁стоял	-2491
▁собира	-2492
▁Высогота	-2493
▁Фрингилья	-2494
бре	-2495
она	-2496
рай	-2497
▁щи	-2498
емый	-2499
кала	-2500
▁мыс	-2501
▁смы	-2502
▁шле	-2503
кинул	-2504
нения	-2505
▁Прав	-2506
▁боро	-2507
▁груп	-2508
▁скло	-2509
▁видно	-2510
▁дерев	-2511
▁ожида	-2512
▁Хорошо	-2513
▁зубами	-2514
▁мгновенно	-2515
▁A	-2516
рак	-2517
энн	-2518
▁фу	-2519
жало	-2520
писа	-2521
рель	-2522
рого	-2523
чиво	-2524
▁Ибо	-2525
▁вдо	-2526
▁доб	-2527
▁кос	-2528
▁яро	-2529
стань	-2530
щения	-2531
▁дней	-2532
▁конь	-2533
▁обер	-2534
▁Пусть	-2535
▁кашля	-2536
▁госпожа	-2537
▁осторожно	-2538
▁прекрасно	-2539
дур	-2540
дый	-2541
хов	-2542
▁Аэ	-2543
▁Об	-2544
деля	-2545
▁выз	-2546
▁дур	-2547
▁ряв	-2548
▁Каэд	-2549
▁вниз	-2550
▁пять	-2551
▁сапо	-2552
▁зелены	-2553
▁Девушка	-2554
фо	-2555
жки	-2556
щал	-2557
▁ан	-2558
стру	-2559
тели	-2560
тыми	-2561
▁сем	-2562
телей	-2563
▁гало	-2564
▁заго	-2565
▁мене	-2566
▁обма	-2567
▁прос	-2568
▁пути	-2569
▁тиши	-2570
зульта	-2571
▁Гисел	-2572
▁груди	-2573
▁меньше	-2574
▁невозможно	-2575
ета	-2576
▁ак	-2577
крас	-2578
ремя	-2579
▁Фра	-2580
шение	-2581
▁игра	-2582
▁мать	-2583
▁пала	-2584
ческий	-2585
шевели	-2586
▁добро	-2587
▁друга	-2588
▁имеет	-2589
▁мужчи	-2590
▁опасно	-2591
тельство	-2592
▁Брокило	-2593
).	-2594
рое	-2595
тел	-2596
нешь	-2597
ницу	-2598
чная	-2599
▁бер	-2600
▁Каэр	-2601
▁заня	-2602
▁упал	-2603
▁фигу	-2604
▁чему	-2605
▁здоро	-2606
▁земле	-2607
▁огонь	-2608
▁извест	-2609
рах	-2610
▁кот	-2611
▁ног	-2612
верно	-2613
кашля	-2614
льхар	-2615
стить	-2616
▁Мери	-2617
▁заме	-2618
▁твои	-2619
▁хоро	-2620
вающие	-2621
ждения	-2622
ющихся	-2623
▁ловко	-2624
▁света	-2625
▁Знаешь	-2626
▁поняла	-2627
▁позволя	-2628
пь	-2629
бир	-2630
дир	-2631
жей	-2632
муэ	-2633
пнул	-2634
▁Без	-2635
▁Пос	-2636
▁лод	-2637
▁зада	-2638
▁каса	-2639
▁непо	-2640
▁поза	-2641
▁твое	-2642
льхарт	-2643
▁Нимуэ	-2644
▁конце	-2645
▁могут	-2646
▁подоб	-2647
▁приго	-2648
▁прошу	-2649
▁самым	-2650
▁волшеб	-2651
▁пример	-2652
▁встрети	-2653
▁мужчина	-2654
▁Эйльхарт	-2655
▁вероятно	-2656
▁императо	-2657
▁Ша	-2658
жела	-2659
лити	-2660
нным	-2661
эльф	-2662
▁Дол	-2663
▁вид	-2664
▁куп	-2665
▁ощу	-2666
▁конец	-2667
▁требу	-2668
▁успел	-2669
▁Кэльпи	-2670
▁вопрос	-2671
▁своего	-2672
▁стояла	-2673
ствовать	-2674
▁говорил	-2675
▁поэтому	-2676
▁удалось	-2677
▁довольно	-2678
бом	-2679
лал	-2680
сек	-2681
пела	-2682
тесь	-2683
долго	-2684
дупре	-2685
стрее	-2686
тился	-2687
▁Морх	-2688
▁вызы	-2689
▁Сабри	-2690
▁будут	-2691
▁задум	-2692
▁менее	-2693
▁твоей	-2694
▁Франце	-2695
▁матери	-2696
▁развер	-2697
▁четвер	-2698
▁Впрочем	-2699
▁повторила	-2700
бил	-2701
сал	-2702
▁хи	-2703
▁дал	-2704
▁меж	-2705
енько	-2706
▁Пока	-2707
▁возь	-2708
▁дома	-2709
▁Тисса	-2710
▁сколь	-2711
▁утвер	-2712
▁цвета	-2713
едленно	-2714
▁находи	-2715
▁уверен	-2716
▁взглянула	-2717
бах	-2718
йки	-2719
сый	-2720
тое	-2721
▁гне	-2722
▁зво	-2723
▁имя	-2724
▁шку	-2725
вести	-2726
вился	-2727
▁мерт	-2728
▁мимо	-2729
▁скре	-2730
женный	-2731
ческих	-2732
▁Зачем	-2733
▁балла	-2734
▁закон	-2735
▁мысли	-2736
▁привы	-2737
▁самый	-2738
собенно	-2739
▁вперед	-2740
▁такого	-2741
▁гораздо	-2742
▁сколько	-2743
▁внимательно	-2744
нэ	-2745
дев	-2746
пры	-2747
чок	-2748
дари	-2749
димо	-2750
едли	-2751
▁Дер	-2752
▁Кон	-2753
▁Оста	-2754
▁зави	-2755
▁коль	-2756
▁наши	-2757
▁поро	-2758
▁путь	-2759
▁Бореа	-2760
▁ветер	-2761
▁грудь	-2762
▁желез	-2763
▁компа	-2764
▁кроме	-2765
▁могли	-2766
▁руках	-2767
▁усили	-2768
▁Короле	-2769
▁Хотспо	-2770
▁возник	-2771
▁внимания	-2772
▁Би	-2773
▁оп	-2774
дрин	-2775
слен	-2776
▁Йен	-2777
▁Кай	-2778
▁тай	-2779
▁упы	-2780
енные	-2781
ждать	-2782
▁Конд	-2783
▁кори	-2784
▁лест	-2785
▁сухо	-2786
▁выдер	-2787
▁выпря	-2788
▁прово	-2789
▁профе	-2790
▁проши	-2791
вирамур	-2792
▁поднима	-2793
▁последни	-2794
▁вздохнула	-2795
▁Кондвирамур	-2796
or	-2797
тие	-2798
шин	-2799
▁Их	-2800
нусь	-2801
скор	-2802
стья	-2803
▁вон	-2804
▁кое	-2805
▁ску	-2806
ваюсь	-2807
▁дать	-2808
▁коли	-2809
▁обла	-2810
▁одну	-2811
▁сплю	-2812
▁стис	-2813
хватил	-2814
▁возра	-2815
▁носом	-2816
▁слуша	-2817
тельным	-2818
▁безопа	-2819
▁вампир	-2820
▁однако	-2821
▁принци	-2822
▁удивля	-2823
▁серьезно	-2824
.).	-2825
бка	-2826
мок	-2827
били	-2828
дель	-2829
жным	-2830
рома	-2831
▁Иск	-2832
▁сон	-2833
гольд	-2834
нение	-2835
▁Реда	-2836
▁боли	-2837
▁речь	-2838
альных	-2839
▁гордо	-2840
▁причи	-2841
▁спину	-2842
▁города	-2843
▁случилось	-2844
▁1	-2845
блу	-2846
жной	-2847
нице	-2848
▁Поз	-2849
▁вед	-2850
▁иди	-2851
▁нер	-2852
▁шту	-2853
вигра	-2854
чками	-2855
▁Бого	-2856
▁зара	-2857
▁изум	-2858
▁ладо	-2859
▁разо	-2860
▁стру	-2861
▁выруг	-2862
▁награ	-2863
▁Кодрин	-2864
▁Правда	-2865
▁почувствовал	-2866
вид	-2867
рым	-2868
▁Лу	-2869
гант	-2870
лами	-2871
стье	-2872
ттье	-2873
шить	-2874
▁рва	-2875
▁сос	-2876
летел	-2877
▁выше	-2878
▁неви	-2879
▁проз	-2880
▁стро	-2881
▁другу	-2882
▁оружие	-2883
▁постоя	-2884
▁секрет	-2885
▁образом	-2886
▁рявкнул	-2887
▁результа	-2888
▁Нильфгаарда	-2889
▁Хм	-2890
▁ге	-2891
▁зи	-2892
▁ть	-2893
инти	-2894
теля	-2895
▁Вто	-2896
ехали	-2897
▁Эсси	-2898
▁Кроме	-2899
▁земли	-2900
▁однов	-2901
▁эльфа	-2902
▁Ваттье	-2903
▁видишь	-2904
▁вместо	-2905
▁минуту	-2906
▁разбой	-2907
▁голосом	-2908
▁ребенка	-2909
▁человека	-2910
▁Меригольд	-2911
▁мгновение	-2912
▁несомненно	-2913
тт	-2914
кан	-2915
лах	-2916
▁Су	-2917
▁Зиг	-2918
▁вну	-2919
▁пох	-2920
▁видя	-2921
▁лице	-2922
▁нару	-2923
▁угро	-2924
женные	-2925
▁следо	-2926
волосая	-2927
▁неболь	-2928
▁единоро	-2929
▁сильнее	-2930
▁пальцами	-2931
▁необходимо	-2932
аля	-2933
нам	-2934
рий	-2935
тен	-2936
шил	-2937
▁Вз	-2938
▁фо	-2939
...»	-2940
киды	-2941
нями	-2942
щему	-2943
▁Неу	-2944
▁Уже	-2945
▁сын	-2946
дцати	-2947
мотря	-2948
слуша	-2949
▁кула	-2950
▁будем	-2951
▁воору	-2952
▁запол	-2953
▁легко	-2954
▁стены	-2955
▁Бореас	-2956
▁Интере	-2957
▁берегу	-2958
▁будешь	-2959
▁Никогда	-2960
▁Пожалуй	-2961
▁пытаясь	-2962
▁одновременно	-2963
вей	-2964
вка	-2965
чья	-2966
шит	-2967
▁аж	-2968
мети	-2969
тяну	-2970
урга	-2971
▁най	-2972
▁низ	-2973
▁пес	-2974
▁сни	-2975
▁хру	-2976
ствия	-2977
хнула	-2978
▁горо	-2979
▁пода	-2980
▁поля	-2981
▁ступ	-2982
▁умер	-2983
▁Кровь	-2984
▁показ	-2985
▁свете	-2986
▁блестя	-2987
▁ногами	-2988
▁смерти	-2989
▁большой	-2990
▁женщины	-2991
▁никаких	-2992
▁услышал	-2993
▁Краснолю	-2994
▁пошевели	-2995
▁Кондвирамурса	-2996
бки	-2997
вли	-2998
мир	-2999
рам	-3000
сой	-3001
таэ	-3002
ерии	-3003
жный	-3004
нись	-3005
фект	-3006
▁жут	-3007
▁соз	-3008
помни	-3009
▁Дево	-3010
▁древ	-3011
▁корч	-3012
▁тако	-3013
▁живот	-3014
▁колон	-3015
▁напря	-3016
▁ночью	-3017
▁посте	-3018
▁права	-3019
▁разли	-3020
ставить	-3021
▁Даинти	-3022
▁настоя	-3023
▁трудно	-3024
▁воздухе	-3025
▁поморщился	-3026
ек	-3027
лк	-3028
кол	-3029
рию	-3030
ъез	-3031
▁Ля	-3032
ехал	-3033
лета	-3034
чает	-3035
чера	-3036
▁пои	-3037
▁усе	-3038
енный	-3039
▁Авал	-3040
▁Крах	-3041
▁желе	-3042
▁удив	-3043
жество	-3044
меется	-3045
▁Филин	-3046
▁замол	-3047
▁камен	-3048
▁нашей	-3049
▁связа	-3050
▁хочет	-3051
▁Туссен	-3052
▁обеими	-3053
▁Аваллак	-3054
▁подошел	-3055
▁схватил	-3056
▁ведьмаку	-3057
▁пришлось	-3058
▁произнес	-3059
дде	-3060
тни	-3061
чие	-3062
вене	-3063
вшую	-3064
нную	-3065
став	-3066
▁зах	-3067
начал	-3068
шейся	-3069
▁голу	-3070
▁окон	-3071
ворачи	-3072
образи	-3073
пустил	-3074
▁Прошу	-3075
▁коней	-3076
▁совет	-3077
▁труба	-3078
▁девчон	-3079
▁помощи	-3080
▁широко	-3081
клонился	-3082
ожиданно	-3083
▁благода	-3084
▁Фольтест	-3085
▁Предназначение	-3086
алы	-3087
бов	-3088
вик	-3089
лер	-3090
нку	-3091
нто	-3092
емые	-3093
жает	-3094
меня	-3095
цени	-3096
цепи	-3097
чены	-3098
▁Вам	-3099
▁Мун	-3100
▁Ост	-3101
▁гре	-3102
▁дам	-3103
▁шла	-3104
мента	-3105
▁Было	-3106
▁взял	-3107
▁маль	-3108
▁магии	-3109
▁наблю	-3110
▁нечто	-3111
▁подоз	-3112
тельный	-3113
▁Значит	-3114
▁уничто	-3115
▁знакомы	-3116
▁неподви	-3117
▁Вильгефорца	-3118
жо	-3119
глу	-3120
жим	-3121
▁ваш	-3122
▁гер	-3123
оборо	-3124
шения	-3125
▁Пред	-3126
▁взви	-3127
▁виде	-3128
▁горе	-3129
▁опре	-3130
ровала	-3131
▁Давай	-3132
▁запла	-3133
▁красо	-3134
▁поряд	-3135
▁созна	-3136
▁удара	-3137
▁Зигрин	-3138
▁каждый	-3139
▁крепко	-3140
▁полити	-3141
▁солнце	-3142
▁твоего	-3143
статочно	-3144
▁Гиселер	-3145
▁Сабрина	-3146
▁думаешь	-3147
▁отправи	-3148
▁волосами	-3149
▁проворчал	-3150
▁Жи	-3151
▁Ки	-3152
щать	-3153
щина	-3154
▁вне	-3155
▁дли	-3156
▁жел	-3157
▁клу	-3158
▁пру	-3159
▁ран	-3160
▁хло	-3161
берве	-3162
чался	-3163
▁Содд	-3164
▁взды	-3165
▁выда	-3166
▁тума	-3167
▁детей	-3168
▁напра	-3169
▁озера	-3170
▁разор	-3171
▁самой	-3172
мотреть	-3173
▁Тиссая	-3174
▁воздух	-3175
▁относи	-3176
▁пользо	-3177
▁тяжело	-3178
ственный	-3179
▁Биберве	-3180
▁говорят	-3181
▁любопыт	-3182
▁поводья	-3183
▁которому	-3184
▁оказался	-3185
▁професси	-3186
бло	-3187
бля	-3188
бсо	-3189
жку	-3190
лия	-3191
рит	-3192
чим	-3193
▁Фи	-3194
воли	-3195
скри	-3196
част	-3197
▁Хен	-3198
бсолю	-3199
давно	-3200
▁воск	-3201
▁меся	-3202
▁уста	-3203
начале	-3204
читься	-3205
▁парши	-3206
▁побле	-3207
▁часто	-3208
енность	-3209
▁пресле	-3210
▁несколь	-3211
▁плечами	-3212
▁возвраща	-3213
▁движения	-3214
▁Кодрингер	-3215
▁Че	-3216
вила	-3217
дник	-3218
пира	-3219
тали	-3220
▁Кар	-3221
▁кля	-3222
▁пал	-3223
▁ваши	-3224
▁поле	-3225
▁пору	-3226
▁возбу	-3227
▁дворе	-3228
▁страх	-3229
▁переста	-3230
▁увидеть	-3231
▁рассчиты	-3232
выл	-3233
▁ех	-3234
вяза	-3235
лыми	-3236
стый	-3237
тила	-3238
чное	-3239
етесь	-3240
знако	-3241
стала	-3242
чного	-3243
▁Иоля	-3244
▁вода	-3245
▁граф	-3246
▁гряз	-3247
▁дети	-3248
▁ждет	-3249
▁реки	-3250
ющийся	-3251
▁послу	-3252
▁такую	-3253
браться	-3254
▁повали	-3255
тельства	-3256
▁Богольт	-3257
▁времена	-3258
▁Хотспорн	-3259
▁предупре	-3260
рэ	-3261
фф	-3262
вос	-3263
цом	-3264
дого	-3265
пить	-3266
щими	-3267
▁сим	-3268
▁шум	-3269
▁Асси	-3270
▁Ском	-3271
▁бога	-3272
▁вами	-3273
▁кмет	-3274
▁мело	-3275
▁укры	-3276
▁хуже	-3277
▁чуди	-3278
меялся	-3279
ступил	-3280
▁Йурга	-3281
▁испол	-3282
▁одино	-3283
▁пожал	-3284
▁стена	-3285
▁указы	-3286
▁этому	-3287
▁столом	-3288
▁указал	-3289
кашлялся	-3290
▁господа	-3291
▁говоришь	-3292
▁Францеска	-3293
▁подтвердил	-3294
дим	-3295
нье	-3296
плю	-3297
ход	-3298
вшей	-3299
ерад	-3300
лады	-3301
▁Тут	-3302
▁Ника	-3303
▁Хоть	-3304
емавен	-3305
ждение	-3306
▁Ежели	-3307
▁погру	-3308
▁раски	-3309
▁стану	-3310
▁стара	-3311
▁эльфы	-3312
▁Ассирэ	-3313
▁подума	-3314
▁тракти	-3315
▁фыркнул	-3316
дая	-3317
там	-3318
▁ал	-3319
реза	-3320
стую	-3321
хода	-3322
шала	-3323
▁Гле	-3324
▁зад	-3325
▁наи	-3326
▁Стре	-3327
▁дожд	-3328
▁изви	-3329
▁клин	-3330
▁пись	-3331
▁собы	-3332
▁твер	-3333
▁чтоб	-3334
честве	-3335
▁Можно	-3336
▁восто	-3337
▁лицом	-3338
▁поста	-3339
▁пошли	-3340
▁прищу	-3341
▁проце	-3342
▁стене	-3343
надцать	-3344
▁Скелли	-3345
▁прикон	-3346
▁выпрями	-3347
▁принима	-3348
▁станови	-3349
▁спросила	-3350
▁Интересно	-3351
▁интересует	-3352
▁продолжала	-3353
дец	-3354
лье	-3355
мый	-3356
▁иг	-3357
гали	-3358
рету	-3359
тник	-3360
▁Баш	-3361
▁зар	-3362
▁кин	-3363
бенок	-3364
держа	-3365
ложил	-3366
▁Черт	-3367
▁крат	-3368
▁объя	-3369
▁орга	-3370
▁посе	-3371
▁радо	-3372
▁силы	-3373
▁соба	-3374
▁Глянь	-3375
▁глупо	-3376
▁княги	-3377
▁нрави	-3378
▁около	-3379
▁предо	-3380
▁специ	-3381
тельной	-3382
▁голове	-3383
▁завтра	-3384
▁парень	-3385
▁предло	-3386
▁узнать	-3387
▁Демавен	-3388
▁повторя	-3389
▁увидела	-3390
▁Возможно	-3391
▁заговори	-3392
▁почувствовала	-3393
ei	-3394
ss	-3395
вир	-3396
вки	-3397
дят	-3398
шед	-3399
алом	-3400
вном	-3401
домо	-3402
зель	-3403
нном	-3404
рика	-3405
стые	-3406
▁Гор	-3407
▁Сло	-3408
▁вес	-3409
▁год	-3410
▁кем	-3411
▁хри	-3412
▁шта	-3413
чился	-3414
▁дого	-3415
▁зали	-3416
▁моих	-3417
альной	-3418
альным	-3419
жалась	-3420
▁Ласто	-3421
▁Разве	-3422
▁прибы	-3423
▁Король	-3424
▁Фалька	-3425
▁близко	-3426
▁видели	-3427
▁пользу	-3428
▁пригла	-3429
▁страха	-3430
▁Новигра	-3431
▁преступ	-3432
▁противо	-3433
▁удоволь	-3434
▁поддержи	-3435
▁фыркнула	-3436
▁выругался	-3437
▁движением	-3438
▁состоянии	-3439
▁величество	-3440
!»	-3441
эп	-3442
вец	-3443
вок	-3444
ляр	-3445
шок	-3446
кали	-3447
лена	-3448
лест	-3449
нили	-3450
пуга	-3451
туда	-3452
цион	-3453
▁Иди	-3454
▁Тан	-3455
▁Уви	-3456
▁изо	-3457
▁клю	-3458
▁офи	-3459
▁Дума	-3460
▁борт	-3461
▁выну	-3462
▁деви	-3463
▁поко	-3464
▁услы	-3465
довать	-3466
чалась	-3467
▁вдоль	-3468
▁конца	-3469
▁люблю	-3470
▁скоро	-3471
▁спине	-3472
вшегося	-3473
▁весьма	-3474
▁вскоре	-3475
▁встала	-3476
▁дорога	-3477
▁работа	-3478
▁девушки	-3479
▁развали	-3480
▁использо	-3481
▁придется	-3482
▁воспользо	-3483
▁оказалось	-3484
▁рассматри	-3485
▁невероятно	-3486
▁поклонился	-3487
зла	-3488
нос	-3489
пец	-3490
рик	-3491
▁Ря	-3492
▁Уж	-3493
поло	-3494
стов	-3495
цией	-3496
шает	-3497
шкой	-3498
▁Ана	-3499
▁Дра	-3500
▁Тво	-3501
▁пля	-3502
ретий	-3503
рился	-3504
▁Полу	-3505
▁веду	-3506
▁виду	-3507
▁выбр	-3508
▁года	-3509
▁гроз	-3510
▁опас	-3511
▁отра	-3512
▁скоя	-3513
ктивно	-3514
чества	-3515
▁присо	-3516
▁пропа	-3517
▁сидел	-3518
▁Некото	-3519
▁медаль	-3520
▁успоко	-3521
▁устави	-3522
▁движение	-3523
гри	-3524
дце	-3525
ишь	-3526
лан	-3527
▁Ох	-3528
▁Ху	-3529
ерез	-3530
жные	-3531
сать	-3532
тите	-3533
хоже	-3534
чную	-3535
▁бал	-3536
▁бои	-3537
▁муд	-3538
стями	-3539
▁Доль	-3540
▁Плот	-3541
▁отно	-3542
▁проя	-3543
▁счит	-3544
▁цели	-3545
▁докон	-3546
▁замет	-3547
▁знаем	-3548
▁зовут	-3549
▁каким	-3550
▁каких	-3551
▁какую	-3552
▁погиб	-3553
▁сохра	-3554
енности	-3555
столько	-3556
▁поверх	-3557
▁светло	-3558
▁глубоко	-3559
▁добавил	-3560
▁отврати	-3561
▁приходи	-3562
▁безопасно	-3563
▁наклонился	-3564
▁согласился	-3565
er	-3566
нс	-3567
▁Щ	-3568
вин	-3569
вот	-3570
лиз	-3571
мое	-3572
тай	-3573
чив	-3574
бора	-3575
гнал	-3576
дале	-3577
енях	-3578
рега	-3579
стая	-3580
чник	-3581
▁зап	-3582
▁лоб	-3583
▁опо	-3584
▁пет	-3585
▁сил	-3586
▁уло	-3587
▁жест	-3588
▁мель	-3589
▁попо	-3590
▁секу	-3591
▁спас	-3592
альное	-3593
альный	-3594
ческая	-3595
▁война	-3596
▁войны	-3597
▁темер	-3598
▁уважа	-3599
мотрела	-3600
▁Кагыра	-3601
▁Откуда	-3602
▁абсолю	-3603
▁гигант	-3604
▁глядел	-3605
▁коридо	-3606
▁освобо	-3607
▁прости	-3608
▁развед	-3609
▁стояли	-3610
▁Девочка	-3611
▁Наконец	-3612
▁Слишком	-3613
▁сделала	-3614
▁сопрово	-3615
▁рассказы	-3616
▁чудовище	-3617
▁ведьмаком	-3618
▁Неожиданно	-3619
▁соответству	-3620
▁E	-3621
вни	-3622
еты	-3623
лек	-3624
цей	-3625
▁Ке	-3626
верх	-3627
веря	-3628
жник	-3629
рени	-3630
▁Ага	-3631
▁Нем	-3632
▁аэп	-3633
▁брю	-3634
▁гал	-3635
▁цен	-3636
вайся	-3637
▁Куда	-3638
▁Тебя	-3639
▁всей	-3640
▁поря	-3641
▁угрю	-3642
тянула	-3643
▁Весем	-3644
▁болез	-3645
▁важно	-3646
▁глухо	-3647
▁дрожа	-3648
▁песок	-3649
▁появи	-3650
▁право	-3651
▁твоих	-3652
▁шесть	-3653
▁Браэнн	-3654
▁другим	-3655
▁предна	-3656
▁стрелы	-3657
▁Доррега	-3658
▁получил	-3659
▁ребенок	-3660
▁осталось	-3661
ar	-3662
in	-3663
гна	-3664
леб	-3665
лее	-3666
лях	-3667
нях	-3668
ред	-3669
чье	-3670
вела	-3671
коне	-3672
нила	-3673
▁Нам	-3674
▁дем	-3675
▁зая	-3676
▁шаг	-3677
▁шли	-3678
жется	-3679
ликси	-3680
хваты	-3681
▁Визи	-3682
▁верю	-3683
▁дико	-3684
▁невы	-3685
▁норм	-3686
▁руга	-3687
вольте	-3688
ленный	-3689
ченный	-3690
▁Крысы	-3691
▁Стало	-3692
▁ждать	-3693
▁засло	-3694
▁одним	-3695
▁плечи	-3696
▁собир	-3697
▁стала	-3698
▁деньги	-3699
▁думала	-3700
▁какого	-3701
▁направ	-3702
▁свидет	-3703
▁черной	-3704
▁желание	-3705
▁шепнула	-3706
▁беспокой	-3707
▁направля	-3708
▁преврати	-3709
рр	-3710
лка	-3711
нью	-3712
▁Ши	-3713
▁ля	-3714
вили	-3715
вшее	-3716
гари	-3717
дной	-3718
емая	-3719
▁Кре	-3720
▁Тот	-3721
▁Эст	-3722
▁бит	-3723
дался	-3724
дится	-3725
мотал	-3726
служи	-3727
▁весе	-3728
▁добы	-3729
▁кожа	-3730
▁лесу	-3731
▁малы	-3732
▁ногу	-3733
▁слов	-3734
▁трех	-3735
▁арома	-3736
▁девка	-3737
▁замер	-3738
▁запах	-3739
▁зачем	-3740
▁имени	-3741
▁моего	-3742
▁отчая	-3743
▁помол	-3744
▁прико	-3745
▁разру	-3746
▁Кайлей	-3747
▁Похоже	-3748
▁воскли	-3749
▁понять	-3750
▁принце	-3751
▁присут	-3752
▁другого	-3753
▁перевер	-3754
▁приказы	-3755
▁которыми	-3756
▁прервала	-3757
▁заклинание	-3758
▁повернулся	-3759
th	-3760
ак	-3761
дки	-3762
кси	-3763
лел	-3764
мас	-3765
нду	-3766
▁Ль	-3767
лено	-3768
тный	-3769
▁Два	-3770
▁Сте	-3771
▁Эти	-3772
▁заи	-3773
▁иду	-3774
▁пов	-3775
▁шар	-3776
брасы	-3777
форма	-3778
▁наез	-3779
щество	-3780
▁крова	-3781
▁никак	-3782
▁решил	-3783
▁туман	-3784
▁хвост	-3785
пустить	-3786
▁другое	-3787
▁похоже	-3788
▁черные	-3789
▁черный	-3790
▁намерен	-3791
▁размахи	-3792
▁Брокилон	-3793
стественно	-3794
▁настолько	-3795
мую	-3796
ций	-3797
делы	-3798
дный	-3799
рали	-3800
▁Вет	-3801
▁вза	-3802
▁оба	-3803
▁ока	-3804
▁пах	-3805
▁уша	-3806
▁воде	-3807
▁зары	-3808
▁кара	-3809
вшейся	-3810
женных	-3811
красне	-3812
▁Глаза	-3813
▁берег	-3814
▁двери	-3815
▁загля	-3816
▁задни	-3817
▁кувши	-3818
▁насме	-3819
ческого	-3820
▁времен	-3821
▁дракон	-3822
▁занима	-3823
▁ненави	-3824
▁полови	-3825
▁Танедде	-3826
▁Скеллиге	-3827
▁внимание	-3828
▁обнаружи	-3829
сах	-3830
чью	-3831
шем	-3832
▁ов	-3833
▁эф	-3834
сыпа	-3835
тили	-3836
чено	-3837
▁дом	-3838
▁кла	-3839
▁ког	-3840
▁рем	-3841
▁ули	-3842
кивая	-3843
▁Веда	-3844
▁жить	-3845
▁опер	-3846
ленной	-3847
▁Перед	-3848
▁Повто	-3849
▁наших	-3850
▁оскор	-3851
▁помню	-3852
▁прили	-3853
тельные	-3854
▁думать	-3855
▁эликси	-3856
▁девочку	-3857
▁странно	-3858
▁убивать	-3859
▁Краснолюд	-3860
гар	-3861
еру	-3862
пов	-3863
тре	-3864
▁Йо	-3865
реди	-3866
сках	-3867
стил	-3868
штан	-3869
▁...	-3870
▁Оль	-3871
▁дел	-3872
▁лок	-3873
▁род	-3874
▁сор	-3875
▁бесс	-3876
▁вино	-3877
▁вспы	-3878
▁даль	-3879
▁избе	-3880
▁нали	-3881
▁нало	-3882
▁отда	-3883
▁посо	-3884
ваются	-3885
▁взять	-3886
▁демон	-3887
▁опять	-3888
▁плать	-3889
▁север	-3890
▁сожал	-3891
▁черно	-3892
▁Просто	-3893
▁колено	-3894
▁Маргари	-3895
▁Старшей	-3896
▁быстрее	-3897
▁недавно	-3898
▁помощью	-3899
▁говорили	-3900
▁покрасне	-3901
▁полуэльф	-3902
▁D	-3903
био	-3904
гну	-3905
туа	-3906
итнэ	-3907
скал	-3908
цвет	-3909
ьями	-3910
▁Вой	-3911
▁Сер	-3912
▁бег	-3913
▁лук	-3914
▁час	-3915
▁шер	-3916
довал	-3917
нился	-3918
▁Бруг	-3919
▁Вели	-3920
▁Помо	-3921
▁мере	-3922
▁огля	-3923
▁физи	-3924
ющиеся	-3925
▁Перси	-3926
▁Хивай	-3927
▁Через	-3928
▁Эитнэ	-3929
▁вздро	-3930
▁перем	-3931
▁попыт	-3932
▁прину	-3933
▁рассе	-3934
▁собра	-3935
▁справ	-3936
▁стрем	-3937
▁видимо	-3938
▁высоко	-3939
▁дороги	-3940
▁достой	-3941
▁отмети	-3942
▁платье	-3943
▁станет	-3944
▁телеги	-3945
▁Скомлик	-3946
▁Цирилла	-3947
▁вспомни	-3948
▁заметила	-3949
▁последний	-3950
▁представля	-3951
dh	-3952
зр	-3953
кс	-3954
нит	-3955
чко	-3956
шко	-3957
▁бь	-3958
▁мэ	-3959
гады	-3960
драв	-3961
кать	-3962
след	-3963
▁Над	-3964
▁Ого	-3965
▁Тор	-3966
▁Тра	-3967
▁зуб	-3968
▁сго	-3969
▁сты	-3970
▁уши	-3971
▁шут	-3972
жался	-3973
менты	-3974
перии	-3975
ствии	-3976
хотом	-3977
▁Будь	-3978
▁Этот	-3979
▁друж	-3980
▁круп	-3981
▁повы	-3982
▁стен	-3983
▁стер	-3984
▁твою	-3985
вающих	-3986
вшимся	-3987
дилось	-3988
чилась	-3989
▁Рядом	-3990
▁Эмрей	-3991
▁Яруги	-3992
▁заклю	-3993
▁мягко	-3994
▁нашел	-3995
▁огнем	-3996
▁отбро	-3997
▁парни	-3998
▁следы	-3999
▁часть	-4000
▁Бругге	-4001
▁Прежде	-4002
▁Слушаю	-4003
▁никого	-4004
▁практи	-4005
▁пришел	-4006
▁следом	-4007
▁Послуша	-4008
▁молчала	-4009
▁управля	-4010
▁никакого	-4011
▁чародеев	-4012
▁возможности	-4013
ял	-4014
бал	-4015
вку	-4016
гай	-4017
дка	-4018
зии	-4019
пой	-4020
ссо	-4021
тей	-4022
фри	-4023
щик	-4024
веси	-4025
жнее	-4026
номи	-4027
рала	-4028
шему	-4029
▁Бла	-4030
▁кош	-4031
▁мою	-4032
егоор	-4033
нерги	-4034
точку	-4035
▁борь	-4036
▁обры	-4037
▁охот	-4038
▁плащ	-4039
▁ужас	-4040
ческим	-4041
▁Скажи	-4042
▁банди	-4043
▁засто	-4044
▁крики	-4045
▁любой	-4046
▁поспе	-4047
▁убить	-4048
▁Прекра	-4049
▁Рыцарь	-4050
▁бывает	-4051
▁женщин	-4052
▁огляды	-4053
▁припод	-4054
▁прислу	-4055
▁сдержи	-4056
ственным	-4057
▁Коегоор	-4058
▁Понимаю	-4059
▁примеру	-4060
▁кашлянул	-4061
▁напомина	-4062
▁особенно	-4063
▁следовало	-4064
▁Бибервельт	-4065
▁остановился	-4066
ll	-4067
▁Ды	-4068
▁ух	-4069
емых	-4070
жных	-4071
ризо	-4072
стях	-4073
чком	-4074
▁Спа	-4075
▁Тер	-4076
▁иде	-4077
▁обу	-4078
▁сен	-4079
▁шко	-4080
ницей	-4081
плега	-4082
▁Расс	-4083
▁внут	-4084
▁заби	-4085
▁зерк	-4086
▁кожу	-4087
▁курт	-4088
▁море	-4089
▁отки	-4090
▁побо	-4091
▁пола	-4092
▁скор	-4093
▁тела	-4094
вшаяся	-4095
просто	-4096
числен	-4097
▁Фабио	-4098
▁взвиз	-4099
▁водой	-4100
▁горло	-4101
▁заста	-4102
▁знали	-4103
▁лежал	-4104
▁минут	-4105
▁редко	-4106
▁сомне	-4107
▁тепло	-4108
▁Аплега	-4109
▁войска	-4110
▁голоса	-4111
▁нечего	-4112
▁первый	-4113
казаться	-4114
▁государ	-4115
▁девочки	-4116
▁малость	-4117
▁сплюнул	-4118
▁присоеди	-4119
▁сообрази	-4120
▁императора	-4121
▁неподвижно	-4122
деш	-4123
дия	-4124
лат	-4125
нюю	-4126
тят	-4127
бель	-4128
исти	-4129
ковы	-4130
кров	-4131
питу	-4132
щает	-4133
▁Дья	-4134
▁бок	-4135
▁жре	-4136
▁лют	-4137
▁нав	-4138
лагаю	-4139
ниями	-4140
стали	-4141
стати	-4142
точки	-4143
чется	-4144
▁доли	-4145
▁дыха	-4146
▁жаль	-4147
▁отры	-4148
▁соло	-4149
▁спря	-4150
▁удер	-4151
едливо	-4152
ссегер	-4153
щаться	-4154
▁Хенсе	-4155
▁камни	-4156
▁кости	-4157
▁подго	-4158
▁позже	-4159
▁пошел	-4160
▁проби	-4161
▁Слушай	-4162
▁красно	-4163
▁мазель	-4164
▁ожидал	-4165
▁поддер	-4166
▁поздно	-4167
▁помочь	-4168
▁середи	-4169
▁ударом	-4170
▁бросила	-4171
▁кивнула	-4172
▁чародея	-4173
▁Виссегер	-4174
▁говорила	-4175
▁случайно	-4176
▁разговари	-4177
▁разумеется	-4178
дям	-4179
ели	-4180
нда	-4181
▁тю	-4182
вель	-4183
низу	-4184
няли	-4185
пать	-4186
▁Слу	-4187
▁губ	-4188
▁упо	-4189
▁фон	-4190
грани	-4191
▁Врие	-4192
▁висе	-4193
▁выры	-4194
▁жерт	-4195
▁силу	-4196
▁сред	-4197
титься	-4198
▁Арету	-4199
▁Шеала	-4200
▁верши	-4201
▁выкри	-4202
▁злове	-4203
▁искус	-4204
▁крепо	-4205
▁оцени	-4206
▁плечо	-4207
▁прика	-4208
▁твори	-4209
▁части	-4210
ваешься	-4211
ющегося	-4212
▁Недами	-4213
▁бежать	-4214
▁прокля	-4215
▁энерги	-4216
▁значения	-4217
▁основном	-4218
▁Персиваль	-4219
▁Ю	-4220
арн	-4221
дах	-4222
жто	-4223
так	-4224
тур	-4225
цам	-4226
▁ae	-4227
▁Зу	-4228
гает	-4229
кнов	-4230
льше	-4231
пами	-4232
▁Вме	-4233
▁Гал	-4234
▁Гра	-4235
▁Дху	-4236
▁Тру	-4237
▁осу	-4238
▁уча	-4239
▁шиб	-4240
гался	-4241
▁друз	-4242
▁заре	-4243
▁конт	-4244
▁потя	-4245
▁служ	-4246
▁тени	-4247
вающий	-4248
гербер	-4249
диться	-4250
оборот	-4251
▁Бонар	-4252
▁Совет	-4253
▁закры	-4254
▁зарос	-4255
▁нужен	-4256
▁оборо	-4257
▁опере	-4258
▁оправ	-4259
▁отвра	-4260
▁покач	-4261
▁прият	-4262
▁проис	-4263
▁стали	-4264
▁столе	-4265
ставила	-4266
▁Цинтре	-4267
▁знаете	-4268
▁нежели	-4269
▁оттуда	-4270
говорить	-4271
▁Весемир	-4272
▁страшно	-4273
▁двадцать	-4274
▁молчания	-4275
▁приближа	-4276
▁чувствуя	-4277
▁Брокилона	-4278
▁находится	-4279
▁отвернулся	-4280
мей	-4281
нят	-4282
рат	-4283
▁Ей	-4284
доби	-4285
дьми	-4286
зеро	-4287
пель	-4288
▁Бар	-4289
▁Ему	-4290
▁бре	-4291
▁каф	-4292
▁кле	-4293
▁нал	-4294
▁ору	-4295
▁уто	-4296
▁Виго	-4297
▁Затк	-4298
▁Маха	-4299
▁Свет	-4300
▁Шани	-4301
▁Ясно	-4302
▁зага	-4303
▁изго	-4304
▁имею	-4305
▁подс	-4306
▁поче	-4307
▁счет	-4308
женная	-4309
сленно	-4310
ствием	-4311
▁Глеви	-4312
▁Какая	-4313
▁Цирил	-4314
▁армии	-4315
▁вышел	-4316
▁жесто	-4317
▁копыт	-4318
▁нужна	-4319
▁проро	-4320
▁пусты	-4321
▁разме	-4322
▁слезы	-4323
▁сплет	-4324
▁стать	-4325
▁стран	-4326
▁торго	-4327
▁требо	-4328
ведения	-4329
ствовал	-4330
тельная	-4331
тельное	-4332
▁Эмгыра	-4333
▁видать	-4334
▁голова	-4335
▁крылья	-4336
▁многое	-4337
▁пожела	-4338
▁солнца	-4339
▁Госпожа	-4340
▁галопом	-4341
▁девушку	-4342
▁здорово	-4343
▁недолго	-4344
▁низушек	-4345
▁скажешь	-4346
▁столько	-4347
▁счастью	-4348
▁полностью	-4349
re	-4350
ило	-4351
кор	-4352
над	-4353
нех	-4354
пах	-4355
пки	-4356
руя	-4357
тии	-4358
▁ца	-4359
вьев	-4360
нику	-4361
рать	-4362
чьей	-4363
▁Кей	-4364
▁Лам	-4365
▁Луч	-4366
▁Пла	-4367
жении	-4368
клады	-4369
льник	-4370
▁баро	-4371
▁будь	-4372
▁валя	-4373
▁выво	-4374
▁жало	-4375
▁носа	-4376
▁носи	-4377
▁сидя	-4378
▁тело	-4379
▁тети	-4380
▁ябло	-4381
▁явля	-4382
казала	-4383
ленные	-4384
против	-4385
▁волос	-4386
▁глянь	-4387
▁двига	-4388
▁замка	-4389
▁имену	-4390
▁иметь	-4391
▁рассу	-4392
▁своем	-4393
▁улыба	-4394
▁Цинтру	-4395
▁горизо	-4396
▁доказа	-4397
▁искать	-4398
▁концов	-4399
▁людьми	-4400
▁окружа	-4401
▁своими	-4402
▁вопросы	-4403
▁информа	-4404
▁буркнула	-4405
▁хотелось	-4406
▁оказалась	-4407
▁Доррегарай	-4408
▁Пожалуйста	-4409
▁немедленно	-4410
▁нескольких	-4411
▁получилось	-4412
▁краснолюдов	-4413
▁T	-4414
▁a	-4415
зок	-4416
лку	-4417
нар	-4418
нке	-4419
пая	-4420
шеп	-4421
▁лы	-4422
емой	-4423
ерей	-4424
лями	-4425
няет	-4426
ссиг	-4427
чишь	-4428
▁Гар	-4429
▁пам	-4430
▁уро	-4431
▁Ляша	-4432
▁дочь	-4433
▁пога	-4434
▁раду	-4435
▁роль	-4436
▁ухмы	-4437
▁цинт	-4438
▁Взгля	-4439
▁болта	-4440
▁вверх	-4441
▁взвыл	-4442
▁двора	-4443
▁задер	-4444
▁замок	-4445
▁сидит	-4446
▁силой	-4447
▁терра	-4448
▁эльфь	-4449
скочила	-4450
▁Больше	-4451
▁Танедд	-4452
▁белого	-4453
▁всяком	-4454
▁вырази	-4455
▁камень	-4456
▁прошло	-4457
▁рухнул	-4458
▁сердце	-4459
▁смотри	-4460
▁Редании	-4461
▁направи	-4462
▁слышала	-4463
▁смотрел	-4464
▁считать	-4465
▁государь	-4466
▁напрасно	-4467
▁побледне	-4468
▁Венгербер	-4469
▁Несколько	-4470
▁Достаточно	-4471
▁возможность	-4472
▁обязательно	-4473
ine	-4474
бар	-4475
жин	-4476
кмо	-4477
пир	-4478
пит	-4479
тек	-4480
гала	-4481
дная	-4482
дные	-4483
жусь	-4484
лени	-4485
снов	-4486
стия	-4487
▁Обе	-4488
▁Рас	-4489
▁Сам	-4490
▁Сна	-4491
▁бое	-4492
▁вса	-4493
▁крю	-4494
▁рит	-4495
вшими	-4496
йтесь	-4497
медли	-4498
▁бесе	-4499
▁брыз	-4500
▁верх	-4501
▁запи	-4502
▁мест	-4503
▁мире	-4504
▁неиз	-4505
▁ночи	-4506
▁огня	-4507
▁отря	-4508
▁плот	-4509
▁пожа	-4510
▁прон	-4511
▁соли	-4512
▁цель	-4513
ванием	-4514
нилась	-4515
▁Держи	-4516
▁Истре	-4517
▁всему	-4518
▁метал	-4519
▁могло	-4520
▁ничто	-4521
▁ошиба	-4522
▁паром	-4523
▁подчи	-4524
▁пошла	-4525
▁страж	-4526
▁ужаса	-4527
▁узнал	-4528
▁умира	-4529
▁Второй	-4530
▁камней	-4531
▁положи	-4532
▁произо	-4533
▁рыцаря	-4534
▁дракона	-4535
▁золотой	-4536
▁равноду	-4537
▁скверно	-4538
▁Королева	-4539
▁Геральтом	-4540
▁Глевиссиг	-4541
▁Некоторые	-4542
▁противополо	-4543
dd	-4544
гли	-4545
жий	-4546
ллю	-4547
лое	-4548
ран	-4549
стр	-4550
фан	-4551
цер	-4552
щет	-4553
дное	-4554
ераз	-4555
мери	-4556
роят	-4557
шову	-4558
▁Тре	-4559
▁Чет	-4560
▁здо	-4561
▁лез	-4562
▁плы	-4563
▁пур	-4564
▁пут	-4565
▁суп	-4566
▁съе	-4567
десят	-4568
дника	-4569
ехала	-4570
▁Наде	-4571
▁ваша	-4572
▁выжи	-4573
▁двер	-4574
▁дели	-4575
▁знак	-4576
▁локо	-4577
▁наем	-4578
▁начи	-4579
▁озна	-4580
▁охра	-4581
▁срав	-4582
▁язык	-4583
дается	-4584
карвил	-4585
летела	-4586
нешься	-4587
ниться	-4588
ходили	-4589
чались	-4590
ческое	-4591
▁Искра	-4592
▁барон	-4593
▁земля	-4594
▁мокры	-4595
▁обеща	-4596
▁разби	-4597
▁связы	-4598
▁твоем	-4599
▁Мышову	-4600
▁распла	-4601
▁черных	-4602
▁чертов	-4603
▁Единоро	-4604
▁возрази	-4605
▁желания	-4606
▁знамени	-4607
▁молчали	-4608
▁цинтрий	-4609
▁Аплегатт	-4610
▁деревьев	-4611
▁некоторые	-4612
▁чувствовал	-4613
гро	-4614
дии	-4615
кви	-4616
ряю	-4617
▁Фу	-4618
▁ад	-4619
бере	-4620
берт	-4621
кови	-4622
шими	-4623
щала	-4624
▁Дей	-4625
▁Нас	-4626
▁виз	-4627
▁изя	-4628
▁мас	-4629
▁нах	-4630
дился	-4631
тирая	-4632
▁Ваше	-4633
▁Верд	-4634
▁Край	-4635
▁Поэт	-4636
▁бабу	-4637
▁дене	-4638
▁засо	-4639
▁копы	-4640
▁краю	-4641
▁круг	-4642
▁мост	-4643
▁пари	-4644
▁худо	-4645
ванный	-4646
переди	-4647
правил	-4648
ровали	-4649
▁Хиреа	-4650
▁бесси	-4651
▁боюсь	-4652
▁глуби	-4653
▁давай	-4654
▁двумя	-4655
▁досто	-4656
▁знают	-4657
▁князь	-4658
▁лично	-4659
▁найти	-4660
▁насле	-4661
▁присе	-4662
▁пусто	-4663
▁разре	-4664
▁разры	-4665
▁самых	-4666
▁ситуа	-4667
▁столу	-4668
▁сумас	-4669
▁трупы	-4670
волосый	-4671
▁голосе	-4672
▁привле	-4673
▁провер	-4674
▁спасти	-4675
▁удержи	-4676
▁ухвати	-4677
бормотал	-4678
ственная	-4679
▁Темерии	-4680
▁взгляда	-4681
▁глянула	-4682
▁коленях	-4683
▁опустил	-4684
▁поднимая	-4685
▁приблизи	-4686
▁принялся	-4687
▁множество	-4688
▁постоянно	-4689
▁предатель	-4690
▁представи	-4691
медлительно	-4692
▁собственной	-4693
ую	-4694
▁S	-4695
доб	-4696
жка	-4697
нек	-4698
эле	-4699
▁ны	-4700
дкой	-4701
жено	-4702
мест	-4703
ните	-4704
тала	-4705
шила	-4706
шили	-4707
▁Жен	-4708
▁Тол	-4709
▁Хол	-4710
▁Эре	-4711
▁дне	-4712
▁нев	-4713
▁плю	-4714
▁ухо	-4715
дания	-4716
нению	-4717
стоит	-4718
▁Возь	-4719
▁Маги	-4720
▁Тоже	-4721
▁Хотя	-4722
▁выго	-4723
▁девя	-4724
▁звон	-4725
▁лицу	-4726
▁меди	-4727
▁музы	-4728
▁наша	-4729
▁обор	-4730
▁осек	-4731
▁попя	-4732
▁раст	-4733
ходить	-4734
▁Север	-4735
▁армия	-4736
▁куста	-4737
▁мысль	-4738
▁нужно	-4739
▁покон	-4740
▁рыцар	-4741
▁упыри	-4742
▁хвата	-4743
▁честь	-4744
▁Капиту	-4745
▁берега	-4746
▁дриады	-4747
▁жестом	-4748
▁первой	-4749
▁третий	-4750
▁успела	-4751
ственной	-4752
▁Морхене	-4753
▁напомни	-4754
▁недоста	-4755
▁некогда	-4756
▁никакой	-4757
▁подошла	-4758
▁пытался	-4759
▁вернулся	-4760
▁отыскать	-4761
▁получить	-4762
▁приказал	-4763
▁трубадур	-4764
▁спрашиваю	-4765
▁повернулась	-4766
ук	-4767
зем	-4768
мым	-4769
цио	-4770
▁Же	-4771
▁ез	-4772
▁щу	-4773
▁яв	-4774
вето	-4775
мать	-4776
пало	-4777
рито	-4778
▁Aen	-4779
▁аль	-4780
▁вор	-4781
▁гул	-4782
▁поо	-4783
▁рев	-4784
▁што	-4785
брать	-4786
нными	-4787
шками	-4788
▁Сили	-4789
▁аген	-4790
▁горы	-4791
▁запу	-4792
▁зная	-4793
▁моря	-4794
▁поте	-4795
▁торо	-4796
▁труп	-4797
▁шапо	-4798
истину	-4799
литэле	-4800
скольз	-4801
ствуют	-4802
тились	-4803
ченные	-4804
▁бродя	-4805
▁дьяво	-4806
▁забыл	-4807
▁затем	-4808
▁изуми	-4809
▁колду	-4810
▁облег	-4811
▁Кеалла	-4812
▁деревя	-4813
▁дороге	-4814
▁тысячи	-4815
▁пояснил	-4816
▁словами	-4817
▁стороне	-4818
▁украшен	-4819
▁Единорог	-4820
▁Заткнись	-4821
▁Ляшарель	-4822
▁Мелитэле	-4823
▁Повторяю	-4824
▁грохотом	-4825
▁качестве	-4826
▁медальон	-4827
▁наоборот	-4828
▁опустила	-4829
▁принципе	-4830
▁удивился	-4831
ствительно	-4832
▁Перестань	-4833
▁существует	-4834
?»	-4835
ах	-4836
нг	-4837
ъя	-4838
▁I	-4839
▁m	-4840
▁v	-4841
дку	-4842
зву	-4843
нья	-4844
пот	-4845
тий	-4846
ъяс	-4847
диви	-4848
жная	-4849
ирру	-4850
роль	-4851
симо	-4852
слей	-4853
▁Мой	-4854
▁Моя	-4855
▁Оба	-4856
▁Хва	-4857
▁Чем	-4858
▁коп	-4859
▁лед	-4860
▁оре	-4861
▁ски	-4862
▁уга	-4863
▁упа	-4864
гивая	-4865
енных	-4866
жного	-4867
кнули	-4868
мерть	-4869
нести	-4870
▁заба	-4871
▁мини	-4872
▁ниже	-4873
▁одни	-4874
▁окно	-4875
▁поки	-4876
▁поце	-4877
▁собр	-4878
▁суки	-4879
альная	-4880
всегда	-4881
лением	-4882
ленных	-4883
▁Аэдир	-4884
▁Долго	-4885
▁Русти	-4886
▁Ширру	-4887
▁возвы	-4888
▁восем	-4889
▁вчера	-4890
▁кавал	-4891
▁разум	-4892
▁редан	-4893
▁таком	-4894
▁торже	-4895
▁упала	-4896
▁устро	-4897
▁Говоря	-4898
▁Неужто	-4899
▁вашего	-4900
▁пересе	-4901
▁послуш	-4902
▁пронзи	-4903
▁раздра	-4904
▁стрелу	-4905
▁услови	-4906
▁шепнул	-4907
карвилль	-4908
▁неприят	-4909
▁осмотре	-4910
▁подходя	-4911
▁покачал	-4912
▁предпле	-4913
▁рукоять	-4914
▁сначала	-4915
▁ведьмаки	-4916
▁поднялся	-4917
▁чувствую	-4918
▁остальные	-4919
▁Танкарвилль	-4920
▁отвернулась	-4921
▁M	-4922
бят	-4923
гих	-4924
еды	-4925
зер	-4926
чав	-4927
чув	-4928
щай	-4929
щер	-4930
▁чь	-4931
веро	-4932
воры	-4933
голо	-4934
емчу	-4935
лиан	-4936
нике	-4937
тана	-4938
шишь	-4939
ялся	-4940
▁Вон	-4941
▁Оно	-4942
▁Пар	-4943
▁бри	-4944
▁жар	-4945
▁пли	-4946
▁теп	-4947
лении	-4948
образ	-4949
скими	-4950
ходил	-4951
щихся	-4952
▁Агло	-4953
▁Конь	-4954
▁выпу	-4955
▁выру	-4956
▁дово	-4957
▁заку	-4958
▁зале	-4959
▁заты	-4960
▁здеш	-4961
▁иллю	-4962
▁коню	-4963
▁обще	-4964
▁пили	-4965
▁пови	-4966
▁пыль	-4967
▁разы	-4968
▁след	-4969
▁утра	-4970
венаге	-4971
первых	-4972
▁Ковир	-4973
▁белые	-4974
▁влады	-4975
▁площа	-4976
▁Осторо	-4977
▁Продол	-4978
▁десять	-4979
▁догады	-4980
▁мальчи	-4981
▁наконе	-4982
▁начали	-4983
▁Паветта	-4984
▁Сколько	-4985
▁большин	-4986
▁дыхание	-4987
▁рассвет	-4988
▁Хувенаге	-4989
▁королевы	-4990
▁нравится	-4991
▁прошипел	-4992
▁ведьмаков	-4993
▁последнее	-4994
▁называется	-4995
▁безопасности	-4996
По	-4997
▁V	-4998
▁e	-4999
лам	-5000
тих	-5001
цах	-5002
чьи	-5003
▁ау	-5004
▁ею	-5005
глот	-5006
ждая	-5007
зади	-5008
игры	-5009
кает	-5010
кова	-5011
мели	-5012
редо	-5013
рели	-5014
рует	-5015
щили	-5016
щить	-5017
▁Бор	-5018
▁Рад	-5019
▁гли	-5020
▁сих	-5021
▁сму	-5022
▁учи	-5023
никам	-5024
стели	-5025
▁Вызи	-5026
▁Люди	-5027
▁Одно	-5028
▁Хочу	-5029
▁бард	-5030
▁жере	-5031
▁изящ	-5032
▁моем	-5033
▁наду	-5034
▁напи	-5035
▁обви	-5036
▁обру	-5037
▁осле	-5038
▁пива	-5039
▁сосу	-5040
▁трак	-5041
▁факт	-5042
летели	-5043
ющейся	-5044
▁Марти	-5045
▁задро	-5046
▁колен	-5047
▁лагер	-5048
▁магия	-5049
▁ножен	-5050
▁покру	-5051
▁порой	-5052
▁разбу	-5053
нтересо	-5054
▁перего	-5055
▁работы	-5056
▁сидели	-5057
▁стрела	-5058
▁считаю	-5059
ственное	-5060
▁надобно	-5061
▁позволю	-5062
▁послуша	-5063
▁огромный	-5064
▁протянул	-5065
▁абсолютно	-5066
▁равновеси	-5067
▁наклонилась	-5068
▁нильфгаардцы	-5069
▁относительно	-5070
▁Предназначения	-5071
?!	-5072
ец	-5073
▁d	-5074
без	-5075
бур	-5076
дри	-5077
лую	-5078
мые	-5079
бого	-5080
днее	-5081
кобы	-5082
люсь	-5083
мали	-5084
ному	-5085
ракт	-5086
стры	-5087
стых	-5088
чами	-5089
▁Буд	-5090
▁Дро	-5091
▁дож	-5092
▁зла	-5093
▁очи	-5094
▁пси	-5095
▁ржа	-5096
▁стя	-5097
▁шеи	-5098
▁эмо	-5099
алеку	-5100
енном	-5101
енным	-5102
лышал	-5103
нится	-5104
нутся	-5105
яться	-5106
▁Жаль	-5107
▁отор	-5108
▁поку	-5109
▁таин	-5110
довлет	-5111
тилась	-5112
ченных	-5113
▁Какой	-5114
▁бойся	-5115
▁броси	-5116
▁вечер	-5117
▁вечно	-5118
▁вскри	-5119
▁вцепи	-5120
▁дриад	-5121
▁лежит	-5122
▁можем	-5123
▁нужды	-5124
▁нужны	-5125
▁одном	-5126
▁погла	-5127
▁предс	-5128
▁пурпу	-5129
▁разно	-5130
▁свист	-5131
▁скажи	-5132
▁слабо	-5133
▁стату	-5134
▁тысяч	-5135
▁Видишь	-5136
▁Риенса	-5137
▁Эмрейс	-5138
▁бессмы	-5139
▁верить	-5140
▁восста	-5141
▁первым	-5142
▁позади	-5143
▁спусти	-5144
▁судьбы	-5145
▁эльфка	-5146
▁Паветты	-5147
▁наступи	-5148
▁однажды	-5149
▁оставля	-5150
▁прикиды	-5151
▁распоря	-5152
тельности	-5153
тельность	-5154
▁Послушай	-5155
▁касается	-5156
▁неведомо	-5157
▁очередной	-5158
▁воскликнул	-5159
▁выпрямился	-5160
▁пожалуйста	-5161
▁показалось	-5162
▁чувствовала	-5163
[1	-5164
дых	-5165
зой	-5166
хой	-5167
▁Пи	-5168
▁юг	-5169
гром	-5170
деми	-5171
жную	-5172
ково	-5173
мами	-5174
мати	-5175
шали	-5176
щали	-5177
▁Вол	-5178
▁Лен	-5179
▁Нес	-5180
▁Обы	-5181
▁Рен	-5182
▁Эта	-5183
▁аму	-5184
▁блю	-5185
▁ими	-5186
▁сою	-5187
▁спя	-5188
дники	-5189
енная	-5190
жений	-5191
нимал	-5192
нятно	-5193
разли	-5194
скоре	-5195
▁Лицо	-5196
▁Мэва	-5197
▁Пега	-5198
▁вися	-5199
▁выби	-5200
▁выро	-5201
▁забр	-5202
▁кора	-5203
▁отва	-5204
▁слез	-5205
▁ство	-5206
▁тамо	-5207
▁трое	-5208
▁угол	-5209
пример	-5210
рилась	-5211
чением	-5212
▁Влады	-5213
▁Галки	-5214
▁вашей	-5215
▁вести	-5216
▁войне	-5217
▁вывер	-5218
▁вытер	-5219
▁засте	-5220
▁измен	-5221
▁каблу	-5222
▁людям	-5223
▁непро	-5224
▁оказы	-5225
▁покло	-5226
▁распу	-5227
▁стену	-5228
▁торча	-5229
▁физио	-5230
▁хруст	-5231
хнулась	-5232
▁Ковира	-5233
▁другую	-5234
▁копыта	-5235
▁многие	-5236
▁одежду	-5237
▁окрова	-5238
▁пойдет	-5239
▁превос	-5240
▁привык	-5241
▁сторон	-5242
▁такими	-5243
▁торгов	-5244
ственные	-5245
▁Истредд	-5246
▁Надеюсь	-5247
▁дорогой	-5248
▁заметно	-5249
▁комнату	-5250
▁легенды	-5251
▁первого	-5252
▁порядке	-5253
▁раздумы	-5254
▁террито	-5255
▁хочется	-5256
▁Довольно	-5257
▁поправил	-5258
▁Брокилоне	-5259
▁интересно	-5260
▁G	-5261
вов	-5262
жут	-5263
лил	-5264
сам	-5265
тин	-5266
▁Эр	-5267
вное	-5268
вной	-5269
даль	-5270
льси	-5271
пати	-5272
▁Бан	-5273
▁Бри	-5274
▁Вел	-5275
▁Глу	-5276
▁Пой	-5277
▁але	-5278
▁дым	-5279
▁еду	-5280
▁моз	-5281
▁мча	-5282
▁сны	-5283
канчи	-5284
несли	-5285
стере	-5286
▁Кото	-5287
▁Небо	-5288
▁дамы	-5289
▁двое	-5290
▁делу	-5291
▁зато	-5292
▁кожи	-5293
▁кони	-5294
▁осве	-5295
▁пара	-5296
▁пиру	-5297
▁пузы	-5298
▁рода	-5299
▁рыба	-5300
▁сиде	-5301
▁трав	-5302
▁тута	-5303
▁уйти	-5304
▁ходу	-5305
вилась	-5306
гались	-5307
довали	-5308
енькая	-5309
▁Нивел	-5310
▁Этого	-5311
▁ваших	-5312
▁видит	-5313
▁ехать	-5314
▁сглот	-5315
▁скром	-5316
▁стрел	-5317
▁числе	-5318
знакоми	-5319
тельных	-5320
▁Ренфри	-5321
▁Цинтра	-5322
▁аромат	-5323
▁дерева	-5324
▁другом	-5325
▁заржал	-5326
▁любовь	-5327
▁невысо	-5328
▁порази	-5329
▁превра	-5330
▁ранены	-5331
▁темноте	-5332
▁ударила	-5333
▁Хиреадан	-5334
▁название	-5335
▁сумасшед	-5336
▁Понимаешь	-5337
▁нильфгаар	-5338
▁простонал	-5339
▁чародейку	-5340
▁откашлялся	-5341
▁Действительно	-5342
▁нильфгаардцев	-5343
зов	-5344
льи	-5345
мел	-5346
пат	-5347
дира	-5348
лега	-5349
лосо	-5350
сала	-5351
чени	-5352
шись	-5353
▁Зло	-5354
▁Муж	-5355
▁Сов	-5356
▁бло	-5357
▁блу	-5358
▁вью	-5359
▁мен	-5360
▁юно	-5361
нутые	-5362
чивая	-5363
чными	-5364
щиеся	-5365
▁Дело	-5366
▁боло	-5367
▁буты	-5368
▁заро	-5369
▁моги	-5370
▁моро	-5371
▁мута	-5372
▁осла	-5373
▁посы	-5374
▁углу	-5375
▁упер	-5376
▁челю	-5377
▁Глава	-5378
▁Голос	-5379
▁Какое	-5380
▁Крови	-5381
▁Помни	-5382
▁Почти	-5383
▁ворот	-5384
▁дверь	-5385
▁жемчу	-5386
▁повез	-5387
▁поэта	-5388
▁преры	-5389
▁проси	-5390
▁седло	-5391
▁созда	-5392
▁чести	-5393
▁шагов	-5394
▁Содден	-5395
▁Солнце	-5396
▁Хочешь	-5397
▁власти	-5398
▁возьми	-5399
▁дриада	-5400
▁острие	-5401
▁память	-5402
▁распро	-5403
▁спустя	-5404
▁хотели	-5405
▁черная	-5406
тельница	-5407
▁Гарштан	-5408
▁Мышовур	-5409
▁Эстерад	-5410
▁пальцев	-5411
▁причина	-5412
▁прыгнул	-5413
▁расстоя	-5414
▁Коегоорн	-5415
▁чертовски	-5416
▁заклинания	-5417
▁предложение	-5418
▁нильфгаардец	-5419
ям	-5420
бою	-5421
ган	-5422
кет	-5423
лли	-5424
мец	-5425
рес	-5426
▁Ис	-5427
▁Ок	-5428
▁Ть	-5429
▁ам	-5430
вато	-5431
толк	-5432
▁Кор	-5433
▁Пол	-5434
▁Пря	-5435
▁Рей	-5436
▁баб	-5437
▁гно	-5438
▁доч	-5439
▁клы	-5440
▁пож	-5441
▁фан	-5442
бился	-5443
вании	-5444
делал	-5445
дения	-5446
дочно	-5447
думал	-5448
надле	-5449
немся	-5450
ставь	-5451
стыми	-5452
чению	-5453
▁гобе	-5454
▁зеле	-5455
▁моим	-5456
▁мэтр	-5457
▁нелю	-5458
▁пыли	-5459
▁теря	-5460
▁шпио	-5461
▁щеку	-5462
▁Думаю	-5463
▁Кейра	-5464
▁Снова	-5465
▁Солда	-5466
▁Спаси	-5467
▁башни	-5468
▁взяла	-5469
▁купец	-5470
▁листь	-5471
▁необы	-5472
▁низко	-5473
▁персо	-5474
▁риско	-5475
▁самом	-5476
▁строй	-5477
▁учены	-5478
▁штука	-5479
▁Возьми	-5480
▁Импера	-5481
▁Нельзя	-5482
▁Челове	-5483
▁воспри	-5484
▁встать	-5485
▁клинок	-5486
▁костра	-5487
▁криком	-5488
▁махнул	-5489
▁никому	-5490
▁призра	-5491
▁сидела	-5492
▁угрюмо	-5493
▁хватит	-5494
вольщина	-5495
▁большая	-5496
▁виногра	-5497
▁вскочил	-5498
▁вытащил	-5499
▁запомни	-5500
▁кинулся	-5501
▁незамет	-5502
▁погрузи	-5503
▁положил	-5504
▁префект	-5505
▁удовлет	-5506
▁Нивеллен	-5507
▁докончил	-5508
▁молчание	-5509
▁начинает	-5510
▁огромные	-5511
▁отскочил	-5512
▁разговор	-5513
▁обернулся	-5514
▁получается	-5515
▁незамедлительно	-5516
!!	-5517
зм	-5518
нк	-5519
рк	-5520
ус	-5521
!!!	-5522
вав	-5523
сот	-5524
тик	-5525
чам	-5526
чур	-5527
▁Ск	-5528
била	-5529
ваем	-5530
вные	-5531
вшим	-5532
пыты	-5533
фант	-5534
▁впи	-5535
▁ква	-5536
▁лат	-5537
▁мел	-5538
▁пау	-5539
▁хищ	-5540
ворот	-5541
питан	-5542
сками	-5543
строй	-5544
▁Дани	-5545
▁Дитя	-5546
▁Ридо	-5547
▁Тише	-5548
▁Элла	-5549
▁Эске	-5550
▁брил	-5551
▁вина	-5552
▁демо	-5553
▁дерь	-5554
▁звер	-5555
▁идут	-5556
▁имел	-5557
▁мето	-5558
▁пару	-5559
▁пона	-5560
▁пяти	-5561
▁сила	-5562
▁табу	-5563
▁халу	-5564
вторых	-5565
нулось	-5566
редото	-5567
ческую	-5568
▁Крайт	-5569
▁арбал	-5570
▁брови	-5571
▁глупы	-5572
▁грубо	-5573
▁денег	-5574
▁замке	-5575
▁несча	-5576
▁отказ	-5577
▁подро	-5578
▁полез	-5579
▁птицы	-5580
▁самая	-5581
▁самую	-5582
▁указа	-5583
▁форму	-5584
жденный	-5585
▁Оставь	-5586
▁Поверь	-5587
▁водоро	-5588
▁другая	-5589
▁княжна	-5590
▁кобыла	-5591
▁налете	-5592
▁напоми	-5593
▁одному	-5594
▁подвер	-5595
▁принес	-5596
▁стреля	-5597
тельного	-5598
▁Бонарта	-5599
▁Владычи	-5600
▁Гляньте	-5601
▁Говорят	-5602
▁большее	-5603
▁большим	-5604
▁достоин	-5605
▁захохот	-5606
▁зеленые	-5607
▁пальцем	-5608
▁потерял	-5609
▁сбежала	-5610
▁чародеи	-5611
▁возразил	-5612
▁замолчал	-5613
▁копытами	-5614
▁принадле	-5615
▁смотрела	-5616
▁сознание	-5617
▁действует	-5618
сю	-5619
ых	-5620
аги	-5621
бые	-5622
лян	-5623
мпа	-5624
ням	-5625
фек	-5626
чаю	-5627
▁Це	-5628
▁дю	-5629
блей	-5630
годи	-5631
креп	-5632
рщик	-5633
тями	-5634
чнее	-5635
▁Вся	-5636
▁Йож	-5637
▁Кла	-5638
▁Кня	-5639
▁Ори	-5640
▁Спо	-5641
▁Тур	-5642
▁ван	-5643
▁пат	-5644
▁ров	-5645
▁сум	-5646
▁шан	-5647
▁шап	-5648
▁эле	-5649
гнали	-5650
ренне	-5651
увели	-5652
чание	-5653
▁Итак	-5654
▁авто	-5655
▁дала	-5656
▁камы	-5657
▁лапы	-5658
▁окна	-5659
▁слух	-5660
▁упря	-5661
▁утом	-5662
ванные	-5663
вшуюся	-5664
нимала	-5665
няться	-5666
спокой	-5667
ставил	-5668
таэлей	-5669
ченной	-5670
▁Зулей	-5671
▁Много	-5672
▁Толпа	-5673
▁Точно	-5674
▁брать	-5675
▁возмо	-5676
▁вслед	-5677
▁держи	-5678
▁кубок	-5679
▁любит	-5680
▁подда	-5681
▁покля	-5682
▁сквер	-5683
▁сумел	-5684
▁токмо	-5685
тельнее	-5686
▁Стрего	-5687
▁больша	-5688
▁борода	-5689
▁восемь	-5690
▁можете	-5691
▁приклю	-5692
▁работу	-5693
▁сверху	-5694
▁старый	-5695
▁увидев	-5696
▁хозяин	-5697
▁чудище	-5698
▁Вначале	-5699
▁Ламберт	-5700
▁Немного	-5701
▁вначале	-5702
▁девушек	-5703
▁королей	-5704
▁милость	-5705
▁мужчины	-5706
▁принять	-5707
▁события	-5708
▁Агловаль	-5709
▁безразли	-5710
▁застонал	-5711
▁лестнице	-5712
▁многозна	-5713
▁насмешли	-5714
▁перестал	-5715
▁утвержда	-5716
▁задумчиво	-5717
▁останется	-5718
▁физиономи	-5719
▁краснолюды	-5720
яз	-5721
дое	-5722
ина	-5723
мик	-5724
нид	-5725
тим	-5726
шое	-5727
▁Ге	-5728
▁Гу	-5729
▁Эх	-5730
▁ощ	-5731
▁уй	-5732
жена	-5733
пели	-5734
пени	-5735
петь	-5736
сток	-5737
тной	-5738
хами	-5739
щами	-5740
▁Был	-5741
▁Гил	-5742
▁Доб	-5743
▁Мир	-5744
▁Рее	-5745
▁Спу	-5746
▁вож	-5747
▁дав	-5748
▁оль	-5749
▁оче	-5750
▁тип	-5751
ваете	-5752
стало	-5753
▁Воро	-5754
▁Лары	-5755
▁Мало	-5756
▁Неве	-5757
▁Сего	-5758
▁влия	-5759
▁дает	-5760
▁души	-5761
▁заши	-5762
▁обре	-5763
▁реку	-5764
▁риск	-5765
▁тара	-5766
▁титу	-5767
▁усея	-5768
▁цепь	-5769
▁чары	-5770
женной	-5771
кадеми	-5772
ченная	-5773
чились	-5774
▁готов	-5775
▁корпу	-5776
▁озеро	-5777
▁расши	-5778
▁утром	-5779
вленный	-5780
ленстер	-5781
пустила	-5782
ственни	-5783
хватила	-5784
▁Быстро	-5785
▁Дальше	-5786
▁Можешь	-5787
▁Стефан	-5788
▁беззву	-5789
▁власть	-5790
▁держал	-5791
▁десяти	-5792
▁зарабо	-5793
▁королю	-5794
▁мрамор	-5795
▁обеспе	-5796
▁принял	-5797
▁хотите	-5798
▁Сегодня	-5799
▁активно	-5800
▁делаешь	-5801
▁зловеще	-5802
▁империи	-5803
▁конкрет	-5804
▁осматри	-5805
▁прелест	-5806
▁солдаты	-5807
▁яростно	-5808
▁Хенсельт	-5809
▁интересо	-5810
▁невероят	-5811
▁повернул	-5812
▁стараясь	-5813
▁засмеялся	-5814
▁подскочил	-5815
▁свидетель	-5816
▁Гилленстер	-5817
▁заинтересо	-5818
▁поговорить	-5819
▁поморщилась	-5820
▁способности	-5821
an	-5822
um	-5823
Не	-5824
▁c	-5825
бам	-5826
вее	-5827
дру	-5828
зая	-5829
анно	-5830
дары	-5831
дают	-5832
ился	-5833
рена	-5834
роди	-5835
▁Аль	-5836
▁Кру	-5837
▁Тай	-5838
▁заб	-5839
▁кан	-5840
▁лен	-5841
▁сей	-5842
ветов	-5843
жимая	-5844
скали	-5845
ченно	-5846
шелся	-5847
щуюся	-5848
▁Венц	-5849
▁Любо	-5850
▁Твой	-5851
▁Хоро	-5852
▁Энид	-5853
▁дыма	-5854
▁кота	-5855
▁небе	-5856
▁ново	-5857
▁пози	-5858
▁попу	-5859
▁праз	-5860
▁рога	-5861
▁скон	-5862
▁удоб	-5863
▁услу	-5864
▁ушах	-5865
▁щеки	-5866
альную	-5867
дилась	-5868
жества	-5869
ленным	-5870
нности	-5871
телось	-5872
чалось	-5873
шенный	-5874
▁Иначе	-5875
▁ведет	-5876
▁войну	-5877
▁грози	-5878
▁дворя	-5879
▁каком	-5880
▁кинул	-5881
▁левой	-5882
▁накло	-5883
▁нелов	-5884
▁нераз	-5885
▁перга	-5886
▁подру	-5887
▁размы	-5888
▁слухи	-5889
вающими	-5890
меялась	-5891
ченного	-5892
▁Вампир	-5893
▁Возвра	-5894
▁Совсем	-5895
▁видите	-5896
▁внутри	-5897
▁дьявол	-5898
▁испуга	-5899
▁кричал	-5900
▁намере	-5901
▁обязан	-5902
▁откров	-5903
▁показы	-5904
▁попыта	-5905
▁прозви	-5906
вершенно	-5907
ственных	-5908
▁зарычал	-5909
▁коротко	-5910
▁отметил	-5911
▁попасть	-5912
▁предпри	-5913
▁соответ	-5914
▁Демавенд	-5915
▁Силифант	-5916
▁заставля	-5917
▁несмотря	-5918
▁услышала	-5919
▁Маргарита	-5920
▁благодаря	-5921
▁маленькая	-5922
▁опустилась	-5923
▁размахивая	-5924
▁рассмеялся	-5925
lo	-5926
йо	-5927
▁s	-5928
гыд	-5929
жие	-5930
ови	-5931
оле	-5932
чом	-5933
щах	-5934
▁Ус	-5935
дирн	-5936
длин	-5937
лала	-5938
логи	-5939
мило	-5940
руют	-5941
рыми	-5942
стся	-5943
стым	-5944
▁Бок	-5945
▁Фре	-5946
▁еди	-5947
▁зай	-5948
▁кап	-5949
▁лба	-5950
▁оса	-5951
▁пещ	-5952
▁пое	-5953
▁сел	-5954
▁сог	-5955
▁топ	-5956
▁уве	-5957
ализо	-5958
ловый	-5959
ретен	-5960
скаки	-5961
страи	-5962
ходят	-5963
▁Живо	-5964
▁Эмгы	-5965
▁бара	-5966
▁добр	-5967
▁зака	-5968
▁запо	-5969
▁идио	-5970
▁кост	-5971
▁наки	-5972
▁нету	-5973
▁снял	-5974
▁шеве	-5975
▁щеке	-5976
дников	-5977
нились	-5978
ностью	-5979
правда	-5980
ходила	-5981
ющимся	-5982
▁Время	-5983
▁Оксен	-5984
▁выслу	-5985
▁вышли	-5986
▁засты	-5987
▁звуки	-5988
▁крово	-5989
▁ладно	-5990
▁мешок	-5991
▁народ	-5992
▁плохо	-5993
▁повед	-5994
▁повяз	-5995
▁призн	-5996
▁треть	-5997
▁Анагыд	-5998
▁Вскоре	-5999
▁Дракон	-6000
▁городе	-6001
▁довери	-6002
▁кратко	-6003
▁нашего	-6004
▁неувер	-6005
▁отказы	-6006
▁прижал	-6007
▁сердца	-6008
вающиеся	-6009
▁Сначала	-6010
▁быстрым	-6011
▁вставил	-6012
▁каждого	-6013
▁погляды	-6014
▁подозре	-6015
▁слышали	-6016
▁Ласточки	-6017
▁вопросов	-6018
▁выглядит	-6019
▁компании	-6020
▁подумать	-6021
▁помолчав	-6022
▁понимать	-6023
▁процедил	-6024
▁пытались	-6025
▁свалился	-6026
▁схватить	-6027
▁недолгого	-6028
▁прикоснов	-6029
▁Приветству	-6030
▁Хувенагель	-6031
▁равновесие	-6032
▁Гилленстерн	-6033
▁справедливо	-6034
»?	-6035
дю	-6036
▁C	-6037
бую	-6038
вив	-6039
вро	-6040
гни	-6041
гут	-6042
ент	-6043
заи	-6044
лке	-6045
хли	-6046
чих	-6047
шет	-6048
щаю	-6049
Анти	-6050
енах	-6051
ждал	-6052
жима	-6053
нюдь	-6054
порт	-6055
туры	-6056
▁гар	-6057
▁диа	-6058
▁дни	-6059
▁кои	-6060
▁нар	-6061
▁око	-6062
▁рад	-6063
▁рес	-6064
▁уко	-6065
▁шра	-6066
▁эша	-6067
жливо	-6068
олето	-6069
печат	-6070
скнех	-6071
стным	-6072
таэли	-6073
▁Вода	-6074
▁Подо	-6075
▁Чтоб	-6076
▁водо	-6077
▁выпа	-6078
▁дитя	-6079
▁днем	-6080
▁допп	-6081
▁зама	-6082
▁зару	-6083
▁клет	-6084
▁коно	-6085
▁мечи	-6086
▁обой	-6087
▁пало	-6088
▁пожи	-6089
▁прох	-6090
▁реке	-6091
▁смеш	-6092
▁спол	-6093
▁тран	-6094
▁утро	-6095
▁цирю	-6096
Антиль	-6097
▁Дакре	-6098
▁Сдела	-6099
▁нейтр	-6100
▁ногах	-6101
▁обеих	-6102
▁обоих	-6103
▁одина	-6104
▁покой	-6105
▁прода	-6106
▁сентя	-6107
▁убежд	-6108
▁удари	-6109
▁форме	-6110
вающего	-6111
надцати	-6112
ступить	-6113
▁кинжал	-6114
▁костер	-6115
▁мелоди	-6116
▁минуты	-6117
▁настро	-6118
▁окружи	-6119
▁правду	-6120
▁скольз	-6121
▁смысле	-6122
▁шевели	-6123
▁болтать	-6124
▁глядела	-6125
▁другими	-6126
▁неожида	-6127
▁повезло	-6128
▁порядок	-6129
▁постели	-6130
▁решение	-6131
▁телепор	-6132
▁увидишь	-6133
▁Вероятно	-6134
▁Простите	-6135
▁Туссенте	-6136
▁подальше	-6137
▁смотреть	-6138
▁творится	-6139
▁указывая	-6140
▁Остальные	-6141
▁ведьмачка	-6142
▁некоторое	-6143
▁неприятно	-6144
▁покраснел	-6145
▁правильно	-6146
▁сосредото	-6147
▁милостивый	-6148
▁предназнач	-6149
▁предостере	-6150
▁результате	-6151
▁Нильфгаарде	-6152
▁королевства	-6153
▁пробормотал	-6154
▁пользоваться	-6155
▁нильфгаардских	-6156
la	-6157
бий	-6158
вах	-6159
дай	-6160
деп	-6161
тем	-6162
валы	-6163
вига	-6164
вому	-6165
грен	-6166
дыть	-6167
етта	-6168
жены	-6169
зать	-6170
лали	-6171
нцем	-6172
чины	-6173
▁Зем	-6174
▁Сти	-6175
▁Хао	-6176
▁вку	-6177
▁впа	-6178
▁впу	-6179
▁гло	-6180
▁жер	-6181
▁сия	-6182
▁хит	-6183
гнала	-6184
гнули	-6185
гнуть	-6186
дение	-6187
скому	-6188
▁Лара	-6189
▁Либо	-6190
▁Цика	-6191
▁вклю	-6192
▁воню	-6193
▁вытя	-6194
▁геро	-6195
▁деко	-6196
▁заор	-6197
▁кана	-6198
▁лихо	-6199
▁миру	-6200
▁отсе	-6201
▁семь	-6202
▁фоку	-6203
▁хлеб	-6204
вающая	-6205
жались	-6206
мально	-6207
никами	-6208
ходило	-6209
▁Между	-6210
▁ехали	-6211
▁запре	-6212
▁любез	-6213
▁любил	-6214
▁мерзо	-6215
▁нашли	-6216
▁опаса	-6217
▁отсут	-6218
▁погло	-6219
▁покое	-6220
▁посла	-6221
▁приро	-6222
▁растя	-6223
▁старо	-6224
▁супру	-6225
▁счаст	-6226
▁черто	-6227
▁шпион	-6228
▁ядови	-6229
▁якобы	-6230
ленного	-6231
ческими	-6232
▁Аэдирн	-6233
▁Темери	-6234
▁Фулько	-6235
▁Эскель	-6236
▁васили	-6237
▁губами	-6238
▁дворца	-6239
▁затяги	-6240
▁кобылу	-6241
▁кольчу	-6242
▁ладони	-6243
▁мужчин	-6244
▁осекся	-6245
▁попала	-6246
▁портал	-6247
▁ужасно	-6248
▁черепа	-6249
▁большую	-6250
▁высокий	-6251
▁закружи	-6252
▁остатки	-6253
▁принцес	-6254
▁сделали	-6255
▁удастся	-6256
▁четверо	-6257
▁Особенно	-6258
▁благодар	-6259
▁девчонка	-6260
▁единорог	-6261
▁командир	-6262
▁проблемы	-6263
▁беззвучно	-6264
▁взглянуть	-6265
▁принялись	-6266
▁покачнулся	-6267
▁предпочита	-6268
▁становится	-6269
▁Нильфгаардом	-6270
▁императорское	-6271
▁t	-6272
бин	-6273
влю	-6274
зия	-6275
йон	-6276
пар	-6277
сып	-6278
▁Га	-6279
▁Чи	-6280
▁ох	-6281
арко	-6282
баир	-6283
борн	-6284
гают	-6285
грим	-6286
грыз	-6287
дыха	-6288
енью	-6289
ждой	-6290
инда	-6291
мешь	-6292
нарт	-6293
новь	-6294
сный	-6295
стие	-6296
чках	-6297
ющем	-6298
▁aep	-6299
▁Дай	-6300
▁Мец	-6301
▁кух	-6302
▁одо	-6303
▁поу	-6304
▁уку	-6305
▁чит	-6306
гнать	-6307
еньки	-6308
менти	-6309
навли	-6310
новил	-6311
реаги	-6312
тался	-6313
▁Буду	-6314
▁Доро	-6315
▁Заре	-6316
▁Идем	-6317
▁Лоша	-6318
▁Твоя	-6319
▁вашу	-6320
▁врез	-6321
▁ждал	-6322
▁звук	-6323
▁имен	-6324
▁клят	-6325
▁коне	-6326
▁лову	-6327
▁моно	-6328
▁наби	-6329
▁наро	-6330
▁обмо	-6331
▁умол	-6332
▁храм	-6333
вестно	-6334
вности	-6335
ложить	-6336
ненько	-6337
первые	-6338
челове	-6339
▁Саови	-6340
▁Терра	-6341
▁Финда	-6342
▁Яругу	-6343
▁вновь	-6344
▁волну	-6345
▁вошла	-6346
▁выйти	-6347
▁голов	-6348
▁грязь	-6349
▁жереб	-6350
▁значи	-6351
▁мосту	-6352
▁несет	-6353
▁пасть	-6354
▁пламя	-6355
▁пребы	-6356
▁прида	-6357
▁призы	-6358
▁роско	-6359
▁самые	-6360
▁смени	-6361
▁спины	-6362
▁ствол	-6363
альными	-6364
▁Глазок	-6365
▁Мильву	-6366
▁Смерть	-6367
▁больно	-6368
▁вздыма	-6369
▁ворота	-6370
▁выбира	-6371
▁вынужд	-6372
▁галере	-6373
▁забыла	-6374
▁затяну	-6375
▁инстру	-6376
▁образо	-6377
▁обстоя	-6378
▁одежда	-6379
▁прошеп	-6380
▁пурпур	-6381
▁стоять	-6382
▁тишине	-6383
▁характ	-6384
рительно	-6385
ствующих	-6386
▁Велерад	-6387
▁Визимир	-6388
▁Женщина	-6389
▁Рейнарт	-6390
▁история	-6391
▁обращая	-6392
▁обыкнов	-6393
▁острове	-6394
▁поправи	-6395
▁располо	-6396
▁счастье	-6397
▁Несмотря	-6398
▁заметить	-6399
▁знакомый	-6400
▁преувели	-6401
▁спросить	-6402
▁существа	-6403
▁Стрегобор	-6404
▁Финдабаир	-6405
▁задумался	-6406
▁насколько	-6407
▁оглянулся	-6408
▁основания	-6409
▁остальных	-6410
▁посмотрел	-6411
▁принялась	-6412
▁прошипела	-6413
▁собирался	-6414
▁взвизгнула	-6415
▁доводилось	-6416
▁краснолюда	-6417
▁осмотрелся	-6418
▁профессион	-6419
▁равнодушно	-6420
▁многочислен	-6421
▁усмехнулась	-6422
▁остановилась	-6423
▁воспользоваться	-6424
▁p	-6425
бым	-6426
вят	-6427
зил	-6428
зли	-6429
лль	-6430
сля	-6431
шне	-6432
▁жу	-6433
алов	-6434
вный	-6435
дись	-6436
ломи	-6437
мяти	-6438
нтов	-6439
тура	-6440
▁Бре	-6441
▁Мед	-6442
▁Мон	-6443
▁Мыр	-6444
▁Пом	-6445
▁Шут	-6446
▁вое	-6447
▁ген	-6448
▁лап	-6449
▁лбу	-6450
▁неи	-6451
▁слю	-6452
▁сож	-6453
▁шка	-6454
лений	-6455
льные	-6456
ногда	-6457
нутый	-6458
стный	-6459
щейся	-6460
▁Разу	-6461
▁Тихо	-6462
▁бегу	-6463
▁брат	-6464
▁взор	-6465
▁губу	-6466
▁заму	-6467
▁зата	-6468
▁искр	-6469
▁мужи	-6470
▁нашу	-6471
▁побы	-6472
▁ребя	-6473
▁союз	-6474
▁трон	-6475
скивая	-6476
шенные	-6477
▁Анарь	-6478
▁Компа	-6479
▁Лучше	-6480
▁Такие	-6481
▁Такой	-6482
▁бедра	-6483
▁велел	-6484
▁девку	-6485
▁друид	-6486
▁моста	-6487
▁нагло	-6488
▁ногой	-6489
▁пойду	-6490
▁посел	-6491
▁презр	-6492
▁тракт	-6493
▁фигур	-6494
ступила	-6495
▁Блатан	-6496
▁Вместо	-6497
▁алебар	-6498
▁ближай	-6499
▁группы	-6500
▁делает	-6501
▁желает	-6502
▁имеешь	-6503
▁клинка	-6504
▁местах	-6505
▁мнение	-6506
▁недели	-6507
▁охотно	-6508
▁переме	-6509
▁плотно	-6510
▁подпры	-6511
▁сможет	-6512
▁терять	-6513
▁тишина	-6514
▁тумане	-6515
▁беспоко	-6516
▁большие	-6517
▁впереди	-6518
▁встреча	-6519
▁здоровь	-6520
▁крайней	-6521
▁понятия	-6522
▁потребо	-6523
▁привяза	-6524
▁рассказ	-6525
▁выдержал	-6526
▁понадоби	-6527
▁протяжно	-6528
▁случится	-6529
▁чародеек	-6530
дивительно	-6531
▁Император	-6532
▁допустить	-6533
▁небольшой	-6534
▁некоторых	-6535
▁оказались	-6536
▁опустился	-6537
▁удивление	-6538
▁естественно	-6539
▁значительно	-6540
▁щ	-6541
гор	-6542
мон	-6543
одо	-6544
ряс	-6545
чне	-6546
▁хм	-6547
арна	-6548
ельд	-6549
жают	-6550
льфи	-6551
ними	-6552
стям	-6553
тило	-6554
циях	-6555
шель	-6556
▁дух	-6557
▁кме	-6558
▁люб	-6559
▁сби	-6560
▁фла	-6561
ерьез	-6562
кнуло	-6563
шении	-6564
▁Арми	-6565
▁Беги	-6566
▁Един	-6567
▁Кран	-6568
▁Маль	-6569
▁Могу	-6570
▁амни	-6571
▁бело	-6572
▁бого	-6573
▁бума	-6574
▁водя	-6575
▁воля	-6576
▁доку	-6577
▁жени	-6578
▁жрец	-6579
▁заса	-6580
▁кучу	-6581
▁муже	-6582
▁пету	-6583
▁пово	-6584
▁прит	-6585
▁ране	-6586
▁реме	-6587
▁сиги	-6588
▁тихи	-6589
▁тучи	-6590
▁чрез	-6591
ванная	-6592
енькие	-6593
ненные	-6594
ненный	-6595
перича	-6596
тались	-6597
▁Благо	-6598
▁Вердэ	-6599
▁Огонь	-6600
▁Следу	-6601
▁барха	-6602
▁бежен	-6603
▁беско	-6604
▁дождь	-6605
▁дости	-6606
▁желаю	-6607
▁здрав	-6608
▁знако	-6609
▁идиот	-6610
▁камер	-6611
▁книги	-6612
▁купцы	-6613
▁ничем	-6614
▁остри	-6615
▁плато	-6616
▁попал	-6617
▁прита	-6618
▁прось	-6619
▁сопля	-6620
▁спосо	-6621
▁стари	-6622
▁столи	-6623
▁трибу	-6624
▁фанта	-6625
▁хотят	-6626
▁четко	-6627
▁четыр	-6628
▁чисто	-6629
▁шлеме	-6630
▁штаны	-6631
ального	-6632
▁Мэльфи	-6633
▁Черные	-6634
▁болтов	-6635
▁восток	-6636
▁всякий	-6637
▁выхода	-6638
▁дерево	-6639
▁друзья	-6640
▁органи	-6641
▁переби	-6642
▁поверь	-6643
▁пришла	-6644
▁разъез	-6645
▁рыцари	-6646
▁слышно	-6647
▁ударов	-6648
▁управи	-6649
▁хрипло	-6650
знакомец	-6651
▁величай	-6652
▁деревья	-6653
▁держала	-6654
▁дрогнул	-6655
▁коронер	-6656
▁нордлин	-6657
▁размаху	-6658
▁рубанул	-6659
▁рыцарей	-6660
▁старого	-6661
▁табурет	-6662
▁требует	-6663
▁ударами	-6664
▁бриллиан	-6665
▁временем	-6666
▁натянула	-6667
▁позволил	-6668
▁потеряла	-6669
▁Виссегерд	-6670
▁перестала	-6671
▁побледнел	-6672
▁предложил	-6673
▁оглядываясь	-6674
▁приходилось	-6675
▁собственный	-6676
▁пронзительно	-6677
ch	-6678
li	-6679
эй	-6680
бая	-6681
сна	-6682
сью	-6683
удя	-6684
▁Зе	-6685
алец	-6686
дело	-6687
деся	-6688
нько	-6689
оиль	-6690
щики	-6691
▁Зла	-6692
▁Мно	-6693
▁Пры	-6694
▁Сме	-6695
▁Фри	-6696
▁Эйк	-6697
▁бру	-6698
▁инт	-6699
▁кло	-6700
▁куз	-6701
▁ман	-6702
▁ноз	-6703
▁ске	-6704
▁тка	-6705
▁хлю	-6706
▁шмы	-6707
альво	-6708
говор	-6709
стран	-6710
телем	-6711
читал	-6712
▁Дхун	-6713
▁Золо	-6714
▁Фэнн	-6715
▁Холо	-6716
▁Эйст	-6717
▁вещи	-6718
▁выле	-6719
▁выпи	-6720
▁выяс	-6721
▁глуп	-6722
▁деле	-6723
▁забу	-6724
▁кусо	-6725
▁ланд	-6726
▁лату	-6727
▁неде	-6728
▁пота	-6729
▁снег	-6730
▁суро	-6731
▁чаще	-6732
▁энто	-6733
бности	-6734
висимо	-6735
няется	-6736
оильти	-6737
раздел	-6738
▁Тайле	-6739
▁Эльфы	-6740
▁верси	-6741
▁внутр	-6742
▁восхи	-6743
▁выбор	-6744
▁галоп	-6745
▁гляди	-6746
▁графи	-6747
▁грязи	-6748
▁жрица	-6749
▁жутко	-6750
▁запля	-6751
▁импер	-6752
▁корзи	-6753
▁любов	-6754
▁мерца	-6755
▁напле	-6756
▁облиз	-6757
▁пение	-6758
▁перья	-6759
▁пробу	-6760
▁проме	-6761
▁раска	-6762
▁реаги	-6763
▁сверх	-6764
▁тради	-6765
▁храма	-6766
▁Доррен	-6767
▁Другие	-6768
▁Завтра	-6769
▁Махака	-6770
▁Мильвы	-6771
▁Монтек	-6772
▁Подума	-6773
▁Прощай	-6774
▁Спокой	-6775
▁Спустя	-6776
▁голени	-6777
▁кобылы	-6778
▁магией	-6779
▁маршал	-6780
▁мастер	-6781
▁письмо	-6782
▁просил	-6783
▁эффект	-6784
▁Недамир	-6785
▁длинные	-6786
▁жестоко	-6787
▁застави	-6788
▁изготов	-6789
▁княгиня	-6790
▁колонны	-6791
▁комнаты	-6792
▁красным	-6793
▁кулаком	-6794
▁оружием	-6795
▁помнила	-6796
▁портрет	-6797
▁посреди	-6798
▁правило	-6799
▁приятно	-6800
▁разбира	-6801
▁сказали	-6802
▁слушать	-6803
▁содержа	-6804
▁содержи	-6805
▁хвостом	-6806
▁Возвраща	-6807
▁Фаоильти	-6808
▁ведьмачь	-6809
▁говорите	-6810
▁длинными	-6811
▁запросто	-6812
▁использу	-6813
▁крыльями	-6814
▁поверить	-6815
▁способно	-6816
▁благодарю	-6817
▁добраться	-6818
▁повалился	-6819
▁поднялась	-6820
▁познакоми	-6821
▁уважаемый	-6822
▁украшенно	-6823
▁проворчала	-6824
▁Монтекальво	-6825
▁Приветствую	-6826
йс	-6827
сл	-6828
фы	-6829
rea	-6830
бль	-6831
гам	-6832
жав	-6833
зал	-6834
ины	-6835
пно	-6836
тке	-6837
тку	-6838
юшо	-6839
яла	-6840
▁Ау	-6841
▁Эб	-6842
inne	-6843
ванд	-6844
вьем	-6845
день	-6846
ждаю	-6847
комы	-6848
лети	-6849
мета	-6850
меть	-6851
чают	-6852
чуть	-6853
▁Ама	-6854
▁Зер	-6855
▁Соб	-6856
▁Убе	-6857
▁Хар	-6858
▁Час	-6859
▁Щук	-6860
▁Эль	-6861
▁бою	-6862
▁дво	-6863
▁ехи	-6864
▁заз	-6865
▁мощ	-6866
▁роз	-6867
▁уче	-6868
▁ярл	-6869
верху	-6870
емого	-6871
крови	-6872
резал	-6873
щийся	-6874
▁Гала	-6875
▁Дале	-6876
▁Дриа	-6877
▁Козо	-6878
▁Мари	-6879
▁Моло	-6880
▁Одни	-6881
▁Рееф	-6882
▁Сила	-6883
▁Фила	-6884
▁доми	-6885
▁заки	-6886
▁засу	-6887
▁игру	-6888
▁идем	-6889
▁исте	-6890
▁мешо	-6891
▁наше	-6892
▁носу	-6893
▁ныне	-6894
▁обез	-6895
▁обли	-6896
▁обсу	-6897
▁отер	-6898
▁пехо	-6899
▁плен	-6900
▁похи	-6901
▁прыж	-6902
▁сбро	-6903
▁типи	-6904
▁чуде	-6905
▁шаги	-6906
ваемых	-6907
виться	-6908
вление	-6909
нность	-6910
ющаяся	-6911
▁Ветер	-6912
▁Какие	-6913
▁Молчи	-6914
▁Остри	-6915
▁армию	-6916
▁богов	-6917
▁всюду	-6918
▁двена	-6919
▁дождя	-6920
▁живой	-6921
▁живым	-6922
▁инсти	-6923
▁искри	-6924
▁кондо	-6925
▁любви	-6926
▁напол	-6927
▁незна	-6928
▁новые	-6929
▁отряд	-6930
▁пируэ	-6931
▁погля	-6932
▁подви	-6933
▁рукав	-6934
▁сотру	-6935
▁твоим	-6936
▁хохот	-6937
▁храме	-6938
женными	-6939
▁Вперед	-6940
▁Короче	-6941
▁Помоги	-6942
▁внешно	-6943
▁впечат	-6944
▁готова	-6945
▁дочери	-6946
▁звоном	-6947
▁изменя	-6948
▁капюшо	-6949
▁корчма	-6950
▁кругом	-6951
▁кстати	-6952
▁лежали	-6953
▁недале	-6954
▁оскорб	-6955
▁ошибся	-6956
▁памяти	-6957
▁причем	-6958
▁рванул	-6959
▁решила	-6960
▁сидеть	-6961
▁скажет	-6962
▁телеге	-6963
▁успели	-6964
▁филосо	-6965
▁Аэдирна	-6966
▁Мужчина	-6967
▁Фальвик	-6968
▁вампира	-6969
▁взгляды	-6970
▁длинный	-6971
▁долгого	-6972
▁истории	-6973
▁неприяз	-6974
▁определ	-6975
▁остался	-6976
▁раскрыл	-6977
▁счастли	-6978
▁черного	-6979
▁черными	-6980
ственного	-6981
▁Блатанна	-6982
▁Филаванд	-6983
▁кинулись	-6984
▁невольно	-6985
▁остались	-6986
▁приподня	-6987
▁простить	-6988
▁пыталась	-6989
▁странный	-6990
▁схватила	-6991
▁услышать	-6992
▁маленький	-6993
▁поблагода	-6994
▁положение	-6995
▁понимаете	-6996
▁произошло	-6997
▁Совершенно	-6998
▁вздрогнула	-6999
▁заговорила	-7000
▁раздумывая	-7001
▁бессмысленно	-7002
ок	-7003
▁2	-7004
edd	-7005
ire	-7006
гры	-7007
жат	-7008
зай	-7009
мут	-7010
мых	-7011
хал	-7012
чия	-7013
▁Жа	-7014
бели	-7015
была	-7016
валя	-7017
вилл	-7018
диен	-7019
жила	-7020
жкой	-7021
зера	-7022
лила	-7023
мого	-7024
няют	-7025
счур	-7026
теше	-7027
тные	-7028
утся	-7029
чика	-7030
чики	-7031
шеле	-7032
▁Бле	-7033
▁Гро	-7034
▁Гру	-7035
▁Кля	-7036
▁Май	-7037
▁Рай	-7038
▁Слы	-7039
▁Спи	-7040
▁Сту	-7041
▁буй	-7042
▁вих	-7043
▁вру	-7044
▁выи	-7045
▁выл	-7046
▁опе	-7047
▁рыб	-7048
▁фур	-7049
▁экс	-7050
енную	-7051
йксен	-7052
ковые	-7053
няясь	-7054
плохо	-7055
преки	-7056
пывая	-7057
тивля	-7058
тится	-7059
форми	-7060
чаюсь	-7061
чений	-7062
чники	-7063
щался	-7064
▁Нера	-7065
▁Твои	-7066
▁Эвер	-7067
▁греб	-7068
▁каму	-7069
▁крон	-7070
▁наве	-7071
▁отоз	-7072
▁пома	-7073
▁поса	-7074
▁смех	-7075
▁спры	-7076
▁умею	-7077
▁хрен	-7078
ваемые	-7079
енебре	-7080
жность	-7081
паться	-7082
▁Белый	-7083
▁Крапи	-7084
▁Ладно	-7085
▁Лидия	-7086
▁Согла	-7087
▁Эстер	-7088
▁белым	-7089
▁волны	-7090
▁заблу	-7091
▁закри	-7092
▁лесах	-7093
▁лютню	-7094
▁нашла	-7095
▁новый	-7096
▁подко	-7097
▁посту	-7098
▁раско	-7099
▁слове	-7100
▁спали	-7101
▁столк	-7102
▁толпы	-7103
▁трона	-7104
▁тряси	-7105
▁хоруг	-7106
▁шагом	-7107
▁шибко	-7108
бородок	-7109
▁Чудови	-7110
▁веришь	-7111
▁гладко	-7112
▁добрые	-7113
▁доверя	-7114
▁железо	-7115
▁забыть	-7116
▁играть	-7117
▁неделю	-7118
▁охваты	-7119
▁подзем	-7120
▁пожала	-7121
▁полной	-7122
▁правом	-7123
▁придет	-7124
▁протер	-7125
▁разные	-7126
▁расста	-7127
▁сделаю	-7128
▁судьба	-7129
▁темные	-7130
▁тетиву	-7131
▁трупов	-7132
▁Взгляни	-7133
▁Филиппы	-7134
▁историю	-7135
▁легенда	-7136
▁металли	-7137
▁обратно	-7138
▁отыскал	-7139
▁попробо	-7140
▁слышать	-7141
▁четырех	-7142
▁Визимира	-7143
▁договори	-7144
▁называли	-7145
▁означает	-7146
▁осталась	-7147
▁ответить	-7148
▁отпустил	-7149
▁отступил	-7150
▁покрутил	-7151
▁поправля	-7152
▁прозвищу	-7153
▁прощения	-7154
▁стиснула	-7155
▁установи	-7156
▁Владычица	-7157
▁Прекрасно	-7158
▁Фольтеста	-7159
▁господина	-7160
▁кончается	-7161
▁маленькие	-7162
▁незаметно	-7163
▁оказаться	-7164
▁опасности	-7165
▁последней	-7166
▁стременах	-7167
▁неуверенно	-7168
▁Дьявольщина	-7169
▁действовать	-7170
▁использовать	-7171
На	-7172
ёг	-7173
ael	-7174
бит	-7175
дда	-7176
дея	-7177
жов	-7178
жой	-7179
жок	-7180
зор	-7181
йка	-7182
йку	-7183
нив	-7184
пят	-7185
тли	-7186
хло	-7187
шта	-7188
▁Зи	-7189
▁яй	-7190
бери	-7191
гнув	-7192
дину	-7193
жина	-7194
жное	-7195
илле	-7196
кнув	-7197
кола	-7198
крой	-7199
леты	-7200
ллет	-7201
нета	-7202
ньем	-7203
рики	-7204
снул	-7205
ссле	-7206
стел	-7207
стол	-7208
сюду	-7209
тора	-7210
фурт	-7211
хази	-7212
чена	-7213
шибо	-7214
шите	-7215
шого	-7216
▁Бер	-7217
▁Бру	-7218
▁Джу	-7219
▁Меч	-7220
▁Пет	-7221
▁ган	-7222
▁жив	-7223
▁коз	-7224
▁сли	-7225
▁уса	-7226
▁уха	-7227
жники	-7228
кался	-7229
краси	-7230
немно	-7231
пился	-7232
стные	-7233
ющему	-7234
▁Весь	-7235
▁Крыс	-7236
▁Твое	-7237
▁глот	-7238
▁дуба	-7239
▁жена	-7240
▁заво	-7241
▁загу	-7242
▁иску	-7243
▁особ	-7244
▁палу	-7245
▁пиво	-7246
▁пить	-7247
▁поды	-7248
▁поже	-7249
▁сада	-7250
▁спут	-7251
▁сына	-7252
▁таре	-7253
бежала	-7254
биться	-7255
ванной	-7256
вились	-7257
дарыня	-7258
литься	-7259
нилось	-7260
рались	-7261
щенная	-7262
▁Имбра	-7263
▁Конек	-7264
▁Попро	-7265
▁Прочь	-7266
▁взяли	-7267
▁домой	-7268
▁драго	-7269
▁дрожь	-7270
▁друже	-7271
▁думай	-7272
▁захло	-7273
▁имено	-7274
▁иссле	-7275
▁кружи	-7276
▁месяц	-7277
▁надпи	-7278
▁напал	-7279
▁непре	-7280
▁опера	-7281
▁опира	-7282
▁пообе	-7283
▁приви	-7284
▁ровно	-7285
▁стихи	-7286
▁толпу	-7287
▁чудом	-7288
валился	-7289
кадемии	-7290
скочили	-7291
стности	-7292
▁Хватит	-7293
▁бандит	-7294
▁белыми	-7295
▁бороду	-7296
▁вконец	-7297
▁войско	-7298
▁выйдет	-7299
▁замеча	-7300
▁каждом	-7301
▁концом	-7302
▁кресла	-7303
▁надыть	-7304
▁напряг	-7305
▁оборот	-7306
▁общего	-7307
▁отвори	-7308
▁перчат	-7309
▁письма	-7310
▁покачи	-7311
▁почита	-7312
▁правой	-7313
▁приста	-7314
▁путеше	-7315
▁разоча	-7316
▁растер	-7317
▁ржание	-7318
▁сбежал	-7319
▁твердо	-7320
▁узнала	-7321
▁черном	-7322
▁черным	-7323
ствующий	-7324
▁Зулейка	-7325
▁Кеаллах	-7326
▁Спасибо	-7327
▁бояться	-7328
▁встречи	-7329
▁несчаст	-7330
▁низушка	-7331
▁показал	-7332
▁помнишь	-7333
▁поселен	-7334
▁решился	-7335
▁стиснул	-7336
▁трубаду	-7337
▁ударить	-7338
▁фиолето	-7339
▁Посмотри	-7340
▁Рассказы	-7341
▁Фрейксен	-7342
▁здоровье	-7343
▁изобража	-7344
▁поворачи	-7345
▁сведения	-7346
▁Эстерхази	-7347
▁вернуться	-7348
▁демонстри	-7349
▁догадался	-7350
▁объяснить	-7351
▁подраздел	-7352
▁разговора	-7353
▁Осторожнее	-7354
▁движениями	-7355
▁подбородок	-7356
▁практически	-7357
▁развернулся	-7358
us	-7359
мь	-7360
эя	-7361
юр	-7362
▁3	-7363
▁4	-7364
▁b	-7365
анс	-7366
вке	-7367
где	-7368
зар	-7369
зви	-7370
зон	-7371
ице	-7372
кса	-7373
лта	-7374
оте	-7375
пам	-7376
реб	-7377
сор	-7378
фом	-7379
хах	-7380
▁Оп	-7381
▁аф	-7382
вешь	-7383
едем	-7384
лела	-7385
мора	-7386
ндер	-7387
нело	-7388
нося	-7389
пион	-7390
пита	-7391
сные	-7392
тела	-7393
ухар	-7394
ффин	-7395
шают	-7396
шены	-7397
щила	-7398
▁Мал	-7399
▁Оши	-7400
▁бук	-7401
▁вел	-7402
▁вти	-7403
▁гон	-7404
▁ред	-7405
▁сма	-7406
▁фар	-7407
▁цер	-7408
верей	-7409
воров	-7410
живая	-7411
илась	-7412
льной	-7413
надца	-7414
нений	-7415
нимая	-7416
нному	-7417
ранти	-7418
рипел	-7419
стель	-7420
стила	-7421
тками	-7422
▁Волк	-7423
▁Нищу	-7424
▁Отве	-7425
▁Силу	-7426
▁баба	-7427
▁войт	-7428
▁дабы	-7429
▁ехал	-7430
▁коме	-7431
▁натк	-7432
▁отпу	-7433
▁пали	-7434
▁паро	-7435
▁плет	-7436
▁поль	-7437
▁пони	-7438
▁прим	-7439
▁сове	-7440
▁сухи	-7441
▁теми	-7442
▁убил	-7443
▁фаль	-7444
▁флан	-7445
▁шрам	-7446
вающее	-7447
вающим	-7448
вшееся	-7449
далека	-7450
носить	-7451
пельно	-7452
центри	-7453
▁Кайле	-7454
▁Лилле	-7455
▁Мэнно	-7456
▁Сразу	-7457
▁Чайки	-7458
▁башма	-7459
▁бедро	-7460
▁вашим	-7461
▁выдох	-7462
▁вышла	-7463
▁запер	-7464
▁кусты	-7465
▁легче	-7466
▁лекар	-7467
▁ночам	-7468
▁обрет	-7469
▁подле	-7470
▁подло	-7471
▁пояса	-7472
▁преле	-7473
▁прила	-7474
▁проте	-7475
▁сзади	-7476
▁силах	-7477
▁снизу	-7478
▁солты	-7479
▁убили	-7480
▁хлест	-7481
вавшись	-7482
ельдмар	-7483
▁Всегда	-7484
▁Первый	-7485
▁Призна	-7486
▁Скорее	-7487
▁Фальки	-7488
▁Цидари	-7489
▁Эредин	-7490
▁будучи	-7491
▁вторая	-7492
▁глазом	-7493
▁гостей	-7494
▁грохот	-7495
▁жизнью	-7496
▁задумы	-7497
▁кобыле	-7498
▁короли	-7499
▁лежала	-7500
▁молние	-7501
▁ослепи	-7502
▁осмели	-7503
▁ответа	-7504
▁поняли	-7505
▁постро	-7506
▁прогре	-7507
▁ремень	-7508
▁станут	-7509
▁телегу	-7510
▁ярости	-7511
▁Высокий	-7512
▁Дроухар	-7513
▁бабушка	-7514
▁боишься	-7515
▁болтают	-7516
▁вежливо	-7517
▁вернусь	-7518
▁камнями	-7519
▁картина	-7520
▁команду	-7521
▁неловко	-7522
▁ожидать	-7523
▁подняли	-7524
▁причины	-7525
▁серебри	-7526
▁сказано	-7527
▁скрежет	-7528
▁стрелой	-7529
▁топором	-7530
▁уверена	-7531
▁Каэдвена	-7532
▁Необходи	-7533
▁вынужден	-7534
▁головами	-7535
▁двадцати	-7536
▁добавила	-7537
▁значение	-7538
▁искренне	-7539
▁компания	-7540
▁крепости	-7541
▁наклонил	-7542
▁оставить	-7543
▁остаться	-7544
▁подобное	-7545
▁показать	-7546
▁пренебре	-7547
▁придержи	-7548
▁проблема	-7549
▁распозна	-7550
▁сглотнул	-7551
▁стороной	-7552
▁тридцать	-7553
▁удержать	-7554
▁улыбаясь	-7555
▁Новиграда	-7556
▁блестящие	-7557
▁вздрогнул	-7558
▁доброволь	-7559
▁ландскнех	-7560
▁получится	-7561
▁предназна	-7562
▁признался	-7563
▁результат	-7564
▁случиться	-7565
▁болезненно	-7566
▁сопротивля	-7567
▁благородный	-7568
▁большинство	-7569
▁направление	-7570
▁поверхности	-7571
▁Филавандрель	-7572
▁остановились	-7573
▁собственного	-7574
ам	-7575
гг	-7576
▁L	-7577
вит	-7578
зур	-7579
кку	-7580
ньи	-7581
пет	-7582
сер	-7583
▁Va	-7584
▁сф	-7585
oine	-7586
выла	-7587
дных	-7588
един	-7589
енри	-7590
жили	-7591
лели	-7592
лень	-7593
льмо	-7594
ново	-7595
рувь	-7596
сали	-7597
ссей	-7598
хали	-7599
чало	-7600
▁Джи	-7601
▁Ида	-7602
▁Пау	-7603
▁ата	-7604
▁еже	-7605
▁зал	-7606
▁зме	-7607
▁кир	-7608
▁нею	-7609
▁риф	-7610
▁сбо	-7611
▁сро	-7612
▁уте	-7613
▁фра	-7614
▁хао	-7615
▁худ	-7616
▁чар	-7617
▁щел	-7618
аннон	-7619
вывая	-7620
дного	-7621
женно	-7622
ловей	-7623
мерно	-7624
несся	-7625
тично	-7626
▁Кому	-7627
▁Неза	-7628
▁Увер	-7629
▁выла	-7630
▁гуля	-7631
▁желу	-7632
▁испу	-7633
▁ката	-7634
▁клад	-7635
▁коры	-7636
▁края	-7637
▁лука	-7638
▁мерз	-7639
▁мете	-7640
▁небу	-7641
▁огра	-7642
▁отка	-7643
▁писк	-7644
▁прош	-7645
▁пута	-7646
▁ряды	-7647
▁упор	-7648
▁ушел	-7649
▁цена	-7650
▁шест	-7651
▁шкур	-7652
ванных	-7653
галась	-7654
даться	-7655
жности	-7656
ллетэй	-7657
тельна	-7658
щенной	-7659
щенные	-7660
ющуюся	-7661
▁Башня	-7662
▁Венцк	-7663
▁Крепп	-7664
▁Понта	-7665
▁бабка	-7666
▁быстр	-7667
▁ветра	-7668
▁вздым	-7669
▁вошел	-7670
▁герой	-7671
▁губах	-7672
▁доски	-7673
▁живет	-7674
▁зубов	-7675
▁локтя	-7676
▁любят	-7677
▁малей	-7678
▁манер	-7679
▁мудро	-7680
▁накры	-7681
▁перча	-7682
▁побли	-7683
▁прими	-7684
▁расхо	-7685
▁ребра	-7686
▁смысл	-7687
▁сотни	-7688
▁топор	-7689
▁топот	-7690
▁трево	-7691
немногу	-7692
тельств	-7693
▁Волшеб	-7694
▁Другой	-7695
▁Лютику	-7696
▁Морхен	-7697
▁Серьез	-7698
▁Торувь	-7699
▁бассей	-7700
▁выжить	-7701
▁готовы	-7702
▁грозно	-7703
▁дерьмо	-7704
▁друиды	-7705
▁испыты	-7706
▁кафтан	-7707
▁крыжов	-7708
▁месяца	-7709
▁мешает	-7710
▁написа	-7711
▁обещал	-7712
▁остров	-7713
▁отнюдь	-7714
▁отрица	-7715
▁ошибку	-7716
▁пожале	-7717
▁поигры	-7718
▁правде	-7719
▁правую	-7720
▁привет	-7721
▁раскал	-7722
▁секунд	-7723
▁стекля	-7724
▁стенах	-7725
▁стремя	-7726
▁худоща	-7727
альность	-7728
▁Лютиком	-7729
▁Рианнон	-7730
▁Соловей	-7731
▁Третого	-7732
▁балладу	-7733
▁воздуха	-7734
▁впрочем	-7735
▁вытянул	-7736
▁задержи	-7737
▁пламени	-7738
▁поймать	-7739
▁полотно	-7740
▁приказа	-7741
▁присела	-7742
▁провали	-7743
▁пройдет	-7744
▁разгоре	-7745
▁сбежать	-7746
▁сообщил	-7747
▁указала	-7748
▁Воистину	-7749
▁Крапивка	-7750
▁Ласточка	-7751
▁Элландер	-7752
▁возраста	-7753
▁защищать	-7754
▁обмануть	-7755
▁ошибаюсь	-7756
▁положено	-7757
▁понимает	-7758
▁раненого	-7759
▁чересчур	-7760
▁воспомина	-7761
▁двигаться	-7762
▁заговорил	-7763
▁захохотал	-7764
▁попятился	-7765
▁насмешливо	-7766
▁оставаться	-7767
▁произнесла	-7768
▁родственни	-7769
▁сомневаюсь	-7770
▁сопровожда	-7771
▁уставившись	-7772
▁Фаоильтиарна	-7773
▁5	-7774
▁f	-7775
ант	-7776
ват	-7777
гим	-7778
дым	-7779
дыш	-7780
жек	-7781
зни	-7782
йду	-7783
ппа	-7784
тет	-7785
хма	-7786
чел	-7787
шом	-7788
▁дя	-7789
анна	-7790
вест	-7791
дняя	-7792
жами	-7793
жней	-7794
лера	-7795
лика	-7796
лить	-7797
меан	-7798
нией	-7799
нцев	-7800
стии	-7801
стят	-7802
тным	-7803
шках	-7804
шков	-7805
▁Вра	-7806
▁Две	-7807
▁Лег	-7808
▁Обо	-7809
▁Пра	-7810
▁Угу	-7811
▁вез	-7812
▁век	-7813
▁дно	-7814
▁жил	-7815
▁жри	-7816
▁лоп	-7817
▁пин	-7818
▁пок	-7819
▁убь	-7820
▁уси	-7821
▁ухи	-7822
бавок	-7823
ваний	-7824
ватый	-7825
вятся	-7826
ертво	-7827
жными	-7828
луние	-7829
нутри	-7830
откры	-7831
рался	-7832
рения	-7833
скажи	-7834
шений	-7835
▁Бель	-7836
▁Борх	-7837
▁Были	-7838
▁Деся	-7839
▁Кагы	-7840
▁Мэтр	-7841
▁Сель	-7842
▁Того	-7843
▁Туда	-7844
▁Тьфу	-7845
▁агре	-7846
▁адеп	-7847
▁бабы	-7848
▁даст	-7849
▁зача	-7850
▁коем	-7851
▁коми	-7852
▁ледя	-7853
▁лета	-7854
▁лили	-7855
▁мери	-7856
▁млад	-7857
▁нату	-7858
▁неба	-7859
▁овла	-7860
▁окре	-7861
▁офиц	-7862
▁писа	-7863
▁полы	-7864
▁прям	-7865
▁румя	-7866
▁скле	-7867
▁смог	-7868
▁стул	-7869
▁тряс	-7870
▁тьма	-7871
▁удал	-7872
▁утих	-7873
▁ушей	-7874
▁шага	-7875
▁штан	-7876
блиоте	-7877
двинул	-7878
енными	-7879
женным	-7880
ленная	-7881
ленную	-7882
ментов	-7883
пеливо	-7884
способ	-7885
шенная	-7886
шенных	-7887
щением	-7888
▁Видел	-7889
▁Всего	-7890
▁Джиан	-7891
▁Локси	-7892
▁Озера	-7893
▁Слово	-7894
▁Фрипп	-7895
▁Эмеан	-7896
▁башню	-7897
▁берет	-7898
▁всеми	-7899
▁дикий	-7900
▁заним	-7901
▁клыки	-7902
▁кметы	-7903
▁когти	-7904
▁лодку	-7905
▁палец	-7906
▁подбо	-7907
▁посвя	-7908
▁психи	-7909
▁сунду	-7910
▁толпа	-7911
▁тоном	-7912
▁убежи	-7913
▁увели	-7914
▁удары	-7915
▁шагах	-7916
▁ярмар	-7917
женного	-7918
ступать	-7919
хватить	-7920
▁Вокруг	-7921
▁Региса	-7922
▁Слышал	-7923
▁Харшей	-7924
▁Черный	-7925
▁Шуттен	-7926
▁вернее	-7927
▁дверей	-7928
▁дверях	-7929
▁делают	-7930
▁дольше	-7931
▁кошмар	-7932
▁мечами	-7933
▁подняв	-7934
▁поцелу	-7935
▁поэзии	-7936
▁приглу	-7937
▁присел	-7938
▁прозву	-7939
▁пульси	-7940
▁рассте	-7941
▁словом	-7942
▁считал	-7943
▁тишину	-7944
▁удосто	-7945
▁чувств	-7946
роваться	-7947
скакивая	-7948
ствовали	-7949
тельными	-7950
▁Живодер	-7951
▁Кранмер	-7952
▁Успокой	-7953
▁баллады	-7954
▁вороной	-7955
▁впервые	-7956
▁второго	-7957
▁выкрики	-7958
▁вытирая	-7959
▁гаранти	-7960
▁зазвене	-7961
▁исчезла	-7962
▁красные	-7963
▁момента	-7964
▁морской	-7965
▁опустив	-7966
▁постель	-7967
▁потребу	-7968
▁событий	-7969
▁увидели	-7970
▁улыбкой	-7971
▁чувства	-7972
▁Беллетэй	-7973
▁Медленно	-7974
▁Новиград	-7975
▁Прекрати	-7976
▁вскочила	-7977
▁выглядел	-7978
▁крикнуть	-7979
▁одиночку	-7980
▁покачала	-7981
▁разведки	-7982
▁свободно	-7983
▁ситуации	-7984
▁сотрудни	-7985
▁считаешь	-7986
▁телепорт	-7987
▁удивляет	-7988
▁чудовища	-7989
▁Демавенда	-7990
▁Последнее	-7991
▁вырвалась	-7992
▁подняться	-7993
▁позволить	-7994
▁предсказа	-7995
▁пятьдесят	-7996
▁чувствует	-7997
▁Невероятно	-7998
▁неподалеку	-7999
▁окровавлен	-8000
▁прикончить	-8001
▁продолжать	-8002
▁трактирщик	-8003
▁доказательство	-8004
].	-8005
ca	-8006
ia	-8007
Ры	-8008
ат	-8009
▁6	-8010
aer	-8011
бру	-8012
дав	-8013
див	-8014
ите	-8015
кве	-8016
лдо	-8017
оны	-8018
сар	-8019
тол	-8020
▁Dh	-8021
▁иш	-8022
▁шо	-8023
алей	-8024
водя	-8025
воор	-8026
емое	-8027
жинн	-8028
леги	-8029
лене	-8030
меты	-8031
ссии	-8032
чему	-8033
чусь	-8034
шные	-8035
▁Вар	-8036
▁Клы	-8037
▁Куд	-8038
▁Лан	-8039
▁Лов	-8040
▁Мер	-8041
▁Сем	-8042
▁Эми	-8043
▁аре	-8044
▁вен	-8045
▁гни	-8046
▁кхе	-8047
▁пон	-8048
▁ума	-8049
▁упу	-8050
▁уце	-8051
▁уще	-8052
▁фер	-8053
▁шпо	-8054
водит	-8055
глазы	-8056
езжай	-8057
ехать	-8058
ждали	-8059
играл	-8060
карди	-8061
ловья	-8062
раста	-8063
стяза	-8064
чонка	-8065
▁Вижу	-8066
▁Винд	-8067
▁Голу	-8068
▁Гото	-8069
▁Даль	-8070
▁Кале	-8071
▁Пови	-8072
▁Ради	-8073
▁бока	-8074
▁дали	-8075
▁жены	-8076
▁замы	-8077
▁запе	-8078
▁знай	-8079
▁иной	-8080
▁конф	-8081
▁лави	-8082
▁лету	-8083
▁льду	-8084
▁меха	-8085
▁мино	-8086
▁насу	-8087
▁отец	-8088
▁полю	-8089
▁райо	-8090
▁речи	-8091
▁рыбь	-8092
▁села	-8093
▁серо	-8094
▁серы	-8095
▁стук	-8096
▁увле	-8097
▁увяз	-8098
вающей	-8099
вающую	-8100
велось	-8101
делить	-8102
женную	-8103
ленное	-8104
ложила	-8105
ненных	-8106
ницами	-8107
пустим	-8108
ставив	-8109
▁Война	-8110
▁Койон	-8111
▁Конец	-8112
▁акцен	-8113
▁белой	-8114
▁взаим	-8115
▁висок	-8116
▁внизу	-8117
▁всеоб	-8118
▁глиня	-8119
▁голод	-8120
▁дерга	-8121
▁живых	-8122
▁захва	-8123
▁изуро	-8124
▁истре	-8125
▁камня	-8126
▁мости	-8127
▁нанес	-8128
▁немно	-8129
▁нетер	-8130
▁одеты	-8131
▁окази	-8132
▁описа	-8133
▁отдал	-8134
▁песен	-8135
▁песка	-8136
▁песке	-8137
▁плаще	-8138
▁повал	-8139
▁скрип	-8140
▁слышу	-8141
▁смогу	-8142
▁снега	-8143
▁спотк	-8144
▁сукин	-8145
▁сунул	-8146
▁толку	-8147
▁фонта	-8148
▁шкуру	-8149
ступили	-8150
хватили	-8151
шибочно	-8152
▁Голова	-8153
▁Паулье	-8154
▁Радкли	-8155
▁Тиссен	-8156
▁Торкве	-8157
▁Эмгыру	-8158
▁взялся	-8159
▁вражде	-8160
▁выделя	-8161
▁выстре	-8162
▁дважды	-8163
▁доноси	-8164
▁дрожал	-8165
▁листья	-8166
▁любила	-8167
▁многих	-8168
▁молнии	-8169
▁молния	-8170
▁наверх	-8171
▁начало	-8172
▁нервно	-8173
▁обраща	-8174
▁ограни	-8175
▁одежде	-8176
▁округе	-8177
▁пройти	-8178
▁процен	-8179
▁прошла	-8180
▁пузырь	-8181
▁расплы	-8182
▁светом	-8183
▁слышит	-8184
▁ходить	-8185
вающихся	-8186
дительно	-8187
тельницы	-8188
▁Аретузы	-8189
▁Давайте	-8190
▁Кажется	-8191
▁Королев	-8192
▁Махакам	-8193
▁Туссент	-8194
▁Цириллу	-8195
▁больших	-8196
▁держать	-8197
▁дорогая	-8198
▁драться	-8199
▁друидов	-8200
▁женщину	-8201
▁интерес	-8202
▁комнате	-8203
▁кричать	-8204
▁мешочек	-8205
▁отреаги	-8206
▁перьями	-8207
▁потолок	-8208
▁приказу	-8209
▁разница	-8210
▁свидете	-8211
▁сильный	-8212
▁советую	-8213
▁ступени	-8214
▁Дийкстры	-8215
▁Сельборн	-8216
▁Скеллена	-8217
▁библиоте	-8218
▁вызывает	-8219
▁издалека	-8220
▁конников	-8221
▁например	-8222
▁подобные	-8223
▁помчался	-8224
▁появился	-8225
▁прислуши	-8226
▁ребенком	-8227
▁самостре	-8228
▁середине	-8229
▁супротив	-8230
▁холодным	-8231
▁Оксенфурт	-8232
▁Терранова	-8233
▁богослужи	-8234
▁взвизгнул	-8235
▁выражение	-8236
▁демонстра	-8237
▁коснулась	-8238
▁собираюсь	-8239
▁Джианкарди	-8240
▁Разумеется	-8241
▁наконечник	-8242
▁прекрасная	-8243
▁происходит	-8244
▁распростра	-8245
▁Венгерберга	-8246
▁любопытство	-8247
▁подтвердила	-8248
▁последствия	-8249
▁нильфгаардские	-8250
▁нильфгаардского	-8251
ёй	-8252
▁H	-8253
ean	-8254
бец	-8255
каи	-8256
лле	-8257
мал	-8258
ндю	-8259
нин	-8260
сей	-8261
тво	-8262
тро	-8263
ффи	-8264
хую	-8265
шаю	-8266
юри	-8267
▁яс	-8268
»...	-8269
берг	-8270
беру	-8271
вязы	-8272
голу	-8273
дины	-8274
дном	-8275
еназ	-8276
йдем	-8277
конт	-8278
леть	-8279
мино	-8280
нены	-8281
низы	-8282
поль	-8283
скры	-8284
спло	-8285
хлеб	-8286
шней	-8287
щика	-8288
ятся	-8289
▁Бли	-8290
▁Наш	-8291
▁Рёг	-8292
▁Сла	-8293
▁Уда	-8294
▁бла	-8295
▁вле	-8296
▁еле	-8297
▁тща	-8298
▁усы	-8299
▁фло	-8300
▁шип	-8301
бежал	-8302
близи	-8303
вится	-8304
иться	-8305
кнуть	-8306
ковой	-8307
кудак	-8308
ложив	-8309
луния	-8310
полни	-8311
права	-8312
скала	-8313
ствую	-8314
тники	-8315
точка	-8316
▁Арте	-8317
▁Ассе	-8318
▁Горс	-8319
▁Дере	-8320
▁Знак	-8321
▁Клар	-8322
▁Льви	-8323
▁Маур	-8324
▁Санс	-8325
▁Силь	-8326
▁Экви	-8327
▁бала	-8328
▁безу	-8329
▁вкус	-8330
▁воле	-8331
▁воли	-8332
▁вонь	-8333
▁выки	-8334
▁высу	-8335
▁дура	-8336
▁дыбы	-8337
▁есте	-8338
▁запя	-8339
▁зашу	-8340
▁испа	-8341
▁каба	-8342
▁квар	-8343
▁коде	-8344
▁лома	-8345
▁льда	-8346
▁лягу	-8347
▁мета	-8348
▁набр	-8349
▁отби	-8350
▁перо	-8351
▁пики	-8352
▁поду	-8353
▁през	-8354
▁рыбы	-8355
▁суть	-8356
▁това	-8357
довала	-8358
ковать	-8359
лагать	-8360
читала	-8361
щегося	-8362
щенный	-8363
▁Будет	-8364
▁Денни	-8365
▁Крыла	-8366
▁Понял	-8367
▁Такая	-8368
▁Таким	-8369
▁Шиляр	-8370
▁владе	-8371
▁войти	-8372
▁гости	-8373
▁грима	-8374
▁дурак	-8375
▁едино	-8376
▁завыл	-8377
▁заглу	-8378
▁закля	-8379
▁капли	-8380
▁клиен	-8381
▁кулак	-8382
▁левую	-8383
▁любом	-8384
▁лютни	-8385
▁монет	-8386
▁мраке	-8387
▁обита	-8388
▁общем	-8389
▁перег	-8390
▁песча	-8391
▁плечу	-8392
▁пойти	-8393
▁прижа	-8394
▁прино	-8395
▁прови	-8396
▁пылью	-8397
▁сапог	-8398
▁сказо	-8399
▁сканд	-8400
▁слева	-8401
▁следа	-8402
▁столб	-8403
▁телег	-8404
▁трени	-8405
▁уходя	-8406
▁фурго	-8407
▁холма	-8408
▁цветы	-8409
волосой	-8410
▁Белого	-8411
▁Вензла	-8412
▁Козоед	-8413
▁Кстати	-8414
▁Нечего	-8415
▁Радови	-8416
▁Смотри	-8417
▁Цикада	-8418
▁ветром	-8419
▁громче	-8420
▁добрый	-8421
▁заявил	-8422
▁именем	-8423
▁капель	-8424
▁квадра	-8425
▁кметов	-8426
▁лихора	-8427
▁могуще	-8428
▁немало	-8429
▁опреде	-8430
▁оружия	-8431
▁острые	-8432
▁отделя	-8433
▁пожара	-8434
▁полный	-8435
▁полным	-8436
▁попали	-8437
▁порядо	-8438
▁появля	-8439
▁прошел	-8440
▁склады	-8441
▁сумеет	-8442
▁угодно	-8443
▁улыбка	-8444
▁универ	-8445
▁хвоста	-8446
▁читать	-8447
▁Каэдвен	-8448
▁Клянусь	-8449
▁Редания	-8450
▁Саовины	-8451
▁Соддена	-8452
▁Солдаты	-8453
▁Соловья	-8454
▁Человек	-8455
▁бородой	-8456
▁будущее	-8457
▁выдержи	-8458
▁высвобо	-8459
▁горизон	-8460
▁грустно	-8461
▁заржала	-8462
▁кричали	-8463
▁оставил	-8464
▁палатки	-8465
▁прижима	-8466
▁провока	-8467
▁секунду	-8468
▁симпати	-8469
▁станешь	-8470
▁ступеня	-8471
▁темпера	-8472
ственными	-8473
ступление	-8474
▁Кудкудак	-8475
▁Серьезно	-8476
▁заглянул	-8477
▁заметили	-8478
▁каменной	-8479
▁лестницы	-8480
▁лошадьми	-8481
▁напомнил	-8482
▁опершись	-8483
▁откинула	-8484
▁пепельно	-8485
▁получишь	-8486
▁средства	-8487
▁холодный	-8488
▁Торувьель	-8489
▁единорога	-8490
▁маленькой	-8491
▁ненадолго	-8492
▁останавли	-8493
▁остановил	-8494
▁перестали	-8495
▁перестань	-8496
▁помчалась	-8497
▁понемногу	-8498
▁трубадура	-8499
▁удавалось	-8500
▁чародейке	-8501
▁человеком	-8502
▁Фрейксенет	-8503
▁изменилось	-8504
▁магической	-8505
▁превосходи	-8506
▁прекрасный	-8507
▁серебряной	-8508
▁белоголовый	-8509
▁королевской	-8510
▁несколькими	-8511
▁представить	-8512
▁собираешься	-8513
▁Нильфгаардцы	-8514
▁единственный	-8515
▁неестественно	-8516
▁7	-8517
бью	-8518
вия	-8519
гге	-8520
дие	-8521
дну	-8522
дью	-8523
жих	-8524
жке	-8525
зма	-8526
мля	-8527
мме	-8528
нцо	-8529
▁Лы	-8530
▁Ос	-8531
▁жо	-8532
▁ук	-8533
Рыба	-8534
быть	-8535
вело	-8536
вных	-8537
гада	-8538
гора	-8539
дную	-8540
йдут	-8541
льки	-8542
мела	-8543
рает	-8544
реры	-8545
решь	-8546
рисо	-8547
ррди	-8548
сков	-8549
сной	-8550
тина	-8551
тков	-8552
ткой	-8553
чило	-8554
чном	-8555
▁Бей	-8556
▁Кни	-8557
▁Мое	-8558
▁Мои	-8559
▁Отс	-8560
▁Шъе	-8561
▁кой	-8562
▁лип	-8563
▁оск	-8564
▁рог	-8565
▁рта	-8566
▁рту	-8567
▁сги	-8568
▁умо	-8569
▁фак	-8570
▁фин	-8571
▁шля	-8572
▁эки	-8573
▁эко	-8574
▁юге	-8575
везти	-8576
жайте	-8577
казан	-8578
льная	-8579
носно	-8580
пытно	-8581
сплох	-8582
стела	-8583
тивно	-8584
тушка	-8585
шнего	-8586
щимся	-8587
▁Была	-8588
▁Веду	-8589
▁Воло	-8590
▁Каль	-8591
▁Лишь	-8592
▁Наез	-8593
▁Пора	-8594
▁Свер	-8595
▁блес	-8596
▁боти	-8597
▁брев	-8598
▁брус	-8599
▁грыз	-8600
▁дост	-8601
▁духо	-8602
▁жива	-8603
▁жили	-8604
▁злой	-8605
▁куль	-8606
▁купе	-8607
▁манд	-8608
▁насы	-8609
▁опыт	-8610
▁орал	-8611
▁подъ	-8612
▁поры	-8613
▁седо	-8614
▁сжал	-8615
▁стой	-8616
▁тали	-8617
▁тень	-8618
▁ушла	-8619
▁шепо	-8620
бежали	-8621
десяти	-8622
резала	-8623
рились	-8624
▁Ангре	-8625
▁Лирии	-8626
▁Магия	-8627
▁Ответ	-8628
▁Турсе	-8629
▁Эррди	-8630
▁башне	-8631
▁башня	-8632
▁бормо	-8633
▁верхо	-8634
▁горах	-8635
▁давал	-8636
▁жажду	-8637
▁занес	-8638
▁заслу	-8639
▁звали	-8640
▁извле	-8641
▁имела	-8642
▁имеют	-8643
▁карма	-8644
▁кирпи	-8645
▁княже	-8646
▁линии	-8647
▁лодки	-8648
▁мести	-8649
▁мечта	-8650
▁нагру	-8651
▁небре	-8652
▁особы	-8653
▁паску	-8654
▁пахну	-8655
▁перес	-8656
▁перст	-8657
▁подал	-8658
▁подми	-8659
▁полот	-8660
▁прогу	-8661
▁снови	-8662
▁собою	-8663
▁спеша	-8664
▁стере	-8665
▁труда	-8666
▁формы	-8667
▁храмо	-8668
▁часов	-8669
жденные	-8670
▁Бельха	-8671
▁Вместе	-8672
▁Кобыла	-8673
▁Тайлес	-8674
▁Чароде	-8675
▁боится	-8676
▁весело	-8677
▁висели	-8678
▁второе	-8679
▁двести	-8680
▁длинно	-8681
▁загоре	-8682
▁изумру	-8683
▁каждой	-8684
▁кувшин	-8685
▁мнению	-8686
▁натяги	-8687
▁начать	-8688
▁невиди	-8689
▁нужным	-8690
▁окинул	-8691
▁отдать	-8692
▁пепель	-8693
▁перене	-8694
▁писать	-8695
▁повыше	-8696
▁попало	-8697
▁претен	-8698
▁прикос	-8699
▁растре	-8700
▁резким	-8701
▁решили	-8702
▁старик	-8703
▁твоему	-8704
▁тракта	-8705
▁убийца	-8706
▁уселся	-8707
▁фигуры	-8708
▁хватил	-8709
▁эльфки	-8710
ствовала	-8711
▁Империи	-8712
▁Нератин	-8713
▁Никаких	-8714
▁Шъееназ	-8715
▁Эквинок	-8716
▁бригады	-8717
▁глубине	-8718
▁глядеть	-8719
▁гляньте	-8720
▁девочек	-8721
▁думаете	-8722
▁задницу	-8723
▁красиво	-8724
▁листьев	-8725
▁надеюсь	-8726
▁оправды	-8727
▁отбрасы	-8728
▁очередь	-8729
▁перепры	-8730
▁поднять	-8731
▁позиции	-8732
▁предела	-8733
▁пределы	-8734
▁сдержал	-8735
▁сильным	-8736
▁спасать	-8737
▁течение	-8738
▁течению	-8739
▁треском	-8740
▁умереть	-8741
▁чуточку	-8742
▁Неправда	-8743
▁Слушаюсь	-8744
▁Хотелось	-8745
▁бандитов	-8746
▁драконов	-8747
▁кавалери	-8748
▁короткий	-8749
▁отправля	-8750
▁предвари	-8751
▁признать	-8752
▁простран	-8753
▁прыгнула	-8754
▁сентября	-8755
▁специали	-8756
▁странным	-8757
▁страшный	-8758
▁угрожает	-8759
▁характер	-8760
▁Шуттенбах	-8761
▁изменился	-8762
▁кашлянула	-8763
▁нормально	-8764
▁позволяет	-8765
▁поигрывая	-8766
▁попытался	-8767
▁прижалась	-8768
▁продолжая	-8769
▁следующий	-8770
▁информацию	-8771
▁независимо	-8772
▁чародейкой	-8773
▁королевское	-8774
▁моментально	-8775
▁собственные	-8776
▁рассматривая	-8777
▁удовольствием	-8778
▁нильфгаардской	-8779
ue	-8780
ею	-8781
доо	-8782
дые	-8783
жаю	-8784
жко	-8785
кну	-8786
ляю	-8787
мяг	-8788
ныр	-8789
пую	-8790
рно	-8791
ьев	-8792
▁me	-8793
▁вя	-8794
бега	-8795
ваны	-8796
веду	-8797
волю	-8798
горн	-8799
дний	-8800
ерар	-8801
ждый	-8802
жите	-8803
зает	-8804
зили	-8805
золо	-8806
льку	-8807
ниях	-8808
пает	-8809
поро	-8810
рену	-8811
рока	-8812
ряса	-8813
сови	-8814
стки	-8815
стря	-8816
тало	-8817
теро	-8818
теря	-8819
харь	-8820
шало	-8821
шний	-8822
▁Кив	-8823
▁Лес	-8824
▁Лок	-8825
▁Пан	-8826
▁Пей	-8827
▁Хло	-8828
▁взо	-8829
▁дай	-8830
▁дея	-8831
▁дре	-8832
▁дря	-8833
▁дюй	-8834
▁кря	-8835
▁куб	-8836
▁лаг	-8837
▁рву	-8838
▁сва	-8839
▁сет	-8840
▁хлы	-8841
▁шло	-8842
▁шну	-8843
влять	-8844
волов	-8845
ждает	-8846
пенно	-8847
преры	-8848
ристо	-8849
тойди	-8850
хотно	-8851
чайно	-8852
чером	-8853
▁Всем	-8854
▁Звез	-8855
▁Кони	-8856
▁Поме	-8857
▁Скоя	-8858
▁беда	-8859
▁блуз	-8860
▁вздо	-8861
▁волю	-8862
▁годы	-8863
▁деду	-8864
▁дубо	-8865
▁ждут	-8866
▁засе	-8867
▁змея	-8868
▁иска	-8869
▁куча	-8870
▁лени	-8871
▁логи	-8872
▁наце	-8873
▁ноге	-8874
▁обоз	-8875
▁огне	-8876
▁отру	-8877
▁пада	-8878
▁пери	-8879
▁пыла	-8880
▁разб	-8881
▁тащи	-8882
▁упре	-8883
▁фоне	-8884
▁язви	-8885
борато	-8886
вавший	-8887
ваемая	-8888
ваемый	-8889
ванным	-8890
вельде	-8891
вления	-8892
голоса	-8893
далась	-8894
делать	-8895
дились	-8896
ениями	-8897
женное	-8898
зелены	-8899
ренные	-8900
стречу	-8901
хватив	-8902
▁Вопро	-8903
▁Замол	-8904
▁Прямо	-8905
▁Содер	-8906
▁Эббин	-8907
▁башен	-8908
▁бешен	-8909
▁бурно	-8910
▁висел	-8911
▁волна	-8912
▁вылез	-8913
▁делаю	-8914
▁довер	-8915
▁живут	-8916
▁закру	-8917
▁запад	-8918
▁засра	-8919
▁искры	-8920
▁кафта	-8921
▁ковир	-8922
▁колпа	-8923
▁кошма	-8924
▁крети	-8925
▁курва	-8926
▁лесам	-8927
▁миром	-8928
▁назна	-8929
▁нарко	-8930
▁нашем	-8931
▁особо	-8932
▁осуще	-8933
▁планы	-8934
▁плече	-8935
▁проез	-8936
▁проли	-8937
▁прото	-8938
▁птица	-8939
▁путем	-8940
▁сжала	-8941
▁травы	-8942
▁тремя	-8943
▁этими	-8944
вшимися	-8945
лышался	-8946
тельную	-8947
ходятся	-8948
▁Вторая	-8949
▁Джулия	-8950
▁Каждый	-8951
▁Кайлея	-8952
▁Кругом	-8953
▁Многие	-8954
▁Нищука	-8955
▁Привет	-8956
▁Третий	-8957
▁Увидев	-8958
▁Эльфка	-8959
▁аудиен	-8960
▁барона	-8961
▁вельмо	-8962
▁взвыла	-8963
▁винова	-8964
▁вырвал	-8965
▁давать	-8966
▁данный	-8967
▁дворец	-8968
▁девица	-8969
▁дереву	-8970
▁доступ	-8971
▁драгоц	-8972
▁думает	-8973
▁золота	-8974
▁корень	-8975
▁кулаки	-8976
▁купить	-8977
▁кустов	-8978
▁любого	-8979
▁мандра	-8980
▁музыка	-8981
▁оконча	-8982
▁острый	-8983
▁офицер	-8984
▁палкой	-8985
▁пламен	-8986
▁плечах	-8987
▁показа	-8988
▁поцело	-8989
▁привез	-8990
▁пришло	-8991
▁рассуд	-8992
▁сдержа	-8993
▁сморщи	-8994
▁телега	-8995
▁торопи	-8996
▁ужасом	-8997
▁улочки	-8998
▁фигура	-8999
▁центре	-9000
▁чарами	-9001
▁честно	-9002
▁шевеля	-9003
▁эмоций	-9004
▁Запомни	-9005
▁Прекрас	-9006
▁вызвать	-9007
▁глядели	-9008
▁дальней	-9009
▁заросли	-9010
▁зеркало	-9011
▁золотом	-9012
▁кинжало	-9013
▁клянусь	-9014
▁котлови	-9015
▁мальчик	-9016
▁надежда	-9017
▁налетел	-9018
▁неплохо	-9019
▁обратил	-9020
▁проница	-9021
▁просить	-9022
▁разыски	-9023
▁свободу	-9024
▁сдается	-9025
▁степени	-9026
▁Дроухард	-9027
▁Туссента	-9028
▁возникла	-9029
▁воистину	-9030
▁врасплох	-9031
▁завсегда	-9032
▁кончится	-9033
▁легендар	-9034
▁мысленно	-9035
▁недалеко	-9036
▁огромная	-9037
▁огромной	-9038
▁остается	-9039
▁пилигрим	-9040
▁понимала	-9041
▁рассвете	-9042
▁рождения	-9043
▁свойства	-9044
▁сознания	-9045
▁странное	-9046
▁схватили	-9047
▁трибунал	-9048
▁является	-9049
ственности	-9050
▁Продолжай	-9051
▁Фрингильи	-9052
▁выбраться	-9053
▁замолчала	-9054
▁известный	-9055
▁поддержал	-9056
▁подхватил	-9057
▁позволила	-9058
▁поправила	-9059
▁потянулся	-9060
▁принимать	-9061
▁принцесса	-9062
▁требуется	-9063
▁убежденно	-9064
▁Артевельде	-9065
▁быстренько	-9066
▁вполголоса	-9067
▁вскрикнула	-9068
▁милостивые	-9069
▁удовлетвор	-9070
▁безошибочно	-9071
▁вооруженных	-9072
▁рассмеялась	-9073
▁удивительно	-9074
▁собственными	-9075
▁соответствии	-9076
▁удовольствие	-9077
▁разговаривать	-9078
▁нильфгаардский	-9079
▁Предназначением	-9080
de	-9081
ie	-9082
is	-9083
йд	-9084
ье	-9085
дик	-9086
дус	-9087
жом	-9088
жон	-9089
зво	-9090
игр	-9091
инф	-9092
луч	-9093
няю	-9094
сив	-9095
ува	-9096
циа	-9097
чут	-9098
▁Йу	-9099
▁Ог	-9100
▁яд	-9101
вень	-9102
вере	-9103
вным	-9104
гори	-9105
дыду	-9106
едля	-9107
емую	-9108
куль	-9109
люби	-9110
мерт	-9111
пело	-9112
рабо	-9113
риан	-9114
роко	-9115
чься	-9116
шина	-9117
▁Анг	-9118
▁Рем	-9119
▁Сом	-9120
▁Спе	-9121
▁воя	-9122
▁дна	-9123
▁жал	-9124
▁зев	-9125
▁изы	-9126
▁миг	-9127
▁пир	-9128
▁пья	-9129
▁сар	-9130
▁шеп	-9131
▁щуп	-9132
▁яме	-9133
▁яму	-9134
▁ямы	-9135
алоги	-9136
венка	-9137
ковых	-9138
лости	-9139
льико	-9140
никах	-9141
райся	-9142
сился	-9143
спеди	-9144
стого	-9145
черед	-9146
чонок	-9147
эстро	-9148
▁Бере	-9149
▁Едем	-9150
▁Жела	-9151
▁Крик	-9152
▁Ночь	-9153
▁Паль	-9154
▁Соло	-9155
▁аргу	-9156
▁бить	-9157
▁выли	-9158
▁двой	-9159
▁драк	-9160
▁жале	-9161
▁заду	-9162
▁залу	-9163
▁змей	-9164
▁кале	-9165
▁капу	-9166
▁ложи	-9167
▁мари	-9168
▁наме	-9169
▁нере	-9170
▁опла	-9171
▁отца	-9172
▁ошей	-9173
▁раза	-9174
▁связ	-9175
▁спал	-9176
▁трой	-9177
▁част	-9178
▁чешу	-9179
▁чита	-9180
▁шире	-9181
▁шлем	-9182
ваемой	-9183
вальди	-9184
лышала	-9185
пались	-9186
правду	-9187
ческом	-9188
чивать	-9189
щалась	-9190
▁Браво	-9191
▁Воспо	-9192
▁Навер	-9193
▁Непод	-9194
▁Опять	-9195
▁Раинф	-9196
▁Райла	-9197
▁астро	-9198
▁белом	-9199
▁броса	-9200
▁вибри	-9201
▁войск	-9202
▁вошли	-9203
▁выплю	-9204
▁добра	-9205
▁дочка	-9206
▁забот	-9207
▁имена	-9208
▁колья	-9209
▁конта	-9210
▁крапи	-9211
▁криво	-9212
▁лодка	-9213
▁лютне	-9214
▁милли	-9215
▁моему	-9216
▁мозаи	-9217
▁морда	-9218
▁нежно	-9219
▁непол	-9220
▁новая	-9221
▁ножом	-9222
▁отвел	-9223
▁ощери	-9224
▁перво	-9225
▁плачу	-9226
▁позор	-9227
▁полых	-9228
▁пружи	-9229
▁ритми	-9230
▁спать	-9231
▁стула	-9232
▁тонко	-9233
▁хлеба	-9234
▁хозяй	-9235
▁целью	-9236
▁ягоди	-9237
благода	-9238
вайтесь	-9239
дохнуть	-9240
пустили	-9241
ступали	-9242
▁Гладыш	-9243
▁Деннис	-9244
▁Догады	-9245
▁Дриада	-9246
▁Ольсен	-9247
▁Пегаса	-9248
▁Плотва	-9249
▁Севера	-9250
▁Танкре	-9251
▁Точнее	-9252
▁Увидел	-9253
▁Четыре	-9254
▁беседу	-9255
▁борьбе	-9256
▁ведомо	-9257
▁всяких	-9258
▁господ	-9259
▁группа	-9260
▁давали	-9261
▁друзей	-9262
▁животе	-9263
▁задума	-9264
▁зараза	-9265
▁звезды	-9266
▁инстин	-9267
▁испыта	-9268
▁истори	-9269
▁конных	-9270
▁корчмы	-9271
▁костей	-9272
▁купцов	-9273
▁лагере	-9274
▁локоны	-9275
▁миниат	-9276
▁одежды	-9277
▁оперся	-9278
▁отважи	-9279
▁отдела	-9280
▁переку	-9281
▁полоса	-9282
▁послал	-9283
▁пришли	-9284
▁прозра	-9285
▁ракови	-9286
▁рукава	-9287
▁сапоги	-9288
▁своему	-9289
▁сказки	-9290
▁славно	-9291
▁стекла	-9292
▁стиски	-9293
▁страны	-9294
▁умеешь	-9295
▁умерла	-9296
▁устраи	-9297
▁черное	-9298
▁шибени	-9299
▁эльфам	-9300
лировать	-9301
ственную	-9302
▁Вердэна	-9303
▁Понтара	-9304
▁Тельико	-9305
▁благоро	-9306
▁значить	-9307
▁кондоть	-9308
▁маршала	-9309
▁меньшей	-9310
▁молодой	-9311
▁молчать	-9312
▁назвать	-9313
▁натянул	-9314
▁перейти	-9315
▁повалил	-9316
▁повязку	-9317
▁подковы	-9318
▁поможет	-9319
▁природы	-9320
▁просила	-9321
▁простой	-9322
▁разбрыз	-9323
▁раскачи	-9324
▁сигилль	-9325
▁удивлен	-9326
▁Вивальди	-9327
▁Извольте	-9328
▁Капитула	-9329
▁Существо	-9330
▁беженцев	-9331
▁ведьмаке	-9332
▁гордость	-9333
▁горизонт	-9334
▁государи	-9335
▁довелось	-9336
▁красивая	-9337
▁наездник	-9338
▁называть	-9339
▁начинают	-9340
▁обществе	-9341
▁огромным	-9342
▁окажется	-9343
▁отвечать	-9344
▁платьице	-9345
▁поблески	-9346
▁повторяю	-9347
▁попросту	-9348
▁приоткры	-9349
▁пытается	-9350
▁сомнения	-9351
▁ступеням	-9352
▁тряхнула	-9353
▁уверенно	-9354
▁эликсиры	-9355
праведливо	-9356
▁Беллетэйн	-9357
▁Содергрен	-9358
▁бессильно	-9359
▁говорится	-9360
▁опасность	-9361
▁подземель	-9362
▁развернул	-9363
▁разговоры	-9364
▁свалилась	-9365
▁сдерживая	-9366
▁справедли	-9367
▁спрашивал	-9368
▁удивленно	-9369
▁цирюльник	-9370
▁Краснолюды	-9371
▁Несомненно	-9372
▁направился	-9373
▁обернулась	-9374
▁преследова	-9375
▁разбойники	-9376
▁стражников	-9377
▁отправились	-9378
▁собственных	-9379
▁недостаточно	-9380
▁нильфгаардца	-9381
▁отвратительно	-9382
ai	-9383
un	-9384
ид	-9385
кк	-9386
щь	-9387
▁8	-9388
dhe	-9389
бры	-9390
ггс	-9391
дке	-9392
ейн	-9393
зел	-9394
мра	-9395
нды	-9396
нси	-9397
рец	-9398
фов	-9399
шав	-9400
щут	-9401
яти	-9402
▁Ян	-9403
▁ию	-9404
Фрес	-9405
баты	-9406
воем	-9407
дует	-9408
енек	-9409
жень	-9410
зила	-9411
мель	-9412
мене	-9413
пена	-9414
пила	-9415
пьем	-9416
сажи	-9417
сого	-9418
стое	-9419
стяк	-9420
тиру	-9421
топы	-9422
тясь	-9423
ходу	-9424
чите	-9425
чкам	-9426
шами	-9427
шние	-9428
шный	-9429
щены	-9430
▁Аба	-9431
▁Буа	-9432
▁Ишь	-9433
▁Сви	-9434
▁Фиц	-9435
▁дед	-9436
▁ево	-9437
▁жир	-9438
▁наг	-9439
▁ори	-9440
▁печ	-9441
▁пош	-9442
▁тен	-9443
▁тео	-9444
eirea	-9445
арнха	-9446
висты	-9447
дание	-9448
ениям	-9449
жаешь	-9450
канье	-9451
лению	-9452
лился	-9453
нутой	-9454
ренов	-9455
рядок	-9456
сться	-9457
тного	-9458
тянув	-9459
фекта	-9460
ходим	-9461
шался	-9462
шемся	-9463
щиков	-9464
▁Арта	-9465
▁Гвин	-9466
▁Зато	-9467
▁Защи	-9468
▁Исто	-9469
▁Мать	-9470
▁Наза	-9471
▁Обри	-9472
▁Ольх	-9473
▁Само	-9474
▁Сере	-9475
▁Стиг	-9476
▁ближ	-9477
▁брен	-9478
▁веки	-9479
▁вела	-9480
▁вось	-9481
▁вред	-9482
▁деше	-9483
▁допу	-9484
▁душе	-9485
▁жену	-9486
▁княж	-9487
▁кося	-9488
▁ложь	-9489
▁почт	-9490
▁рану	-9491
▁розо	-9492
▁стан	-9493
▁схва	-9494
▁тише	-9495
▁цепо	-9496
▁часа	-9497
▁шала	-9498
▁щели	-9499
Фресне	-9500
демейн	-9501
настоя	-9502
ненным	-9503
танный	-9504
ченное	-9505
ченную	-9506
чивает	-9507
чником	-9508
щались	-9509
▁Барон	-9510
▁Друго	-9511
▁Запах	-9512
▁Земля	-9513
▁Ночью	-9514
▁Огром	-9515
▁Пламя	-9516
▁Самое	-9517
▁Среди	-9518
▁Такое	-9519
▁барка	-9520
▁бедер	-9521
▁безза	-9522
▁белок	-9523
▁бывал	-9524
▁весть	-9525
▁вожжи	-9526
▁возму	-9527
▁возна	-9528
▁волки	-9529
▁всхли	-9530
▁высох	-9531
▁гонец	-9532
▁дожда	-9533
▁домов	-9534
▁дружи	-9535
▁забле	-9536
▁карто	-9537
▁князя	-9538
▁конку	-9539
▁кошка	-9540
▁кусок	-9541
▁лесом	-9542
▁марки	-9543
▁масса	-9544
▁мертв	-9545
▁надое	-9546
▁нахму	-9547
▁неуда	-9548
▁облом	-9549
▁образ	-9550
▁парня	-9551
▁патру	-9552
▁прики	-9553
▁прися	-9554
▁прочь	-9555
▁разду	-9556
▁расто	-9557
▁рекой	-9558
▁речки	-9559
▁рукам	-9560
▁самоу	-9561
▁светя	-9562
▁свиса	-9563
▁слома	-9564
▁сокра	-9565
▁сталь	-9566
▁суста	-9567
▁текла	-9568
▁ткнул	-9569
▁транс	-9570
▁устри	-9571
▁черту	-9572
▁эшафо	-9573
▁юноша	-9574
eireadh	-9575
новение	-9576
▁Видела	-9577
▁Говорю	-9578
▁Мильве	-9579
▁Настро	-9580
▁Никому	-9581
▁Острит	-9582
▁Отсюда	-9583
▁Предпо	-9584
▁Филина	-9585
▁Шилярд	-9586
▁вечера	-9587
▁востор	-9588
▁вывали	-9589
▁выдать	-9590
▁вытяну	-9591
▁гибель	-9592
▁делали	-9593
▁держит	-9594
▁дернул	-9595
▁доказы	-9596
▁долине	-9597
▁дрожит	-9598
▁живьем	-9599
▁загадо	-9600
▁заорал	-9601
▁изыска	-9602
▁иногда	-9603
▁каждое	-9604
▁кладби	-9605
▁колдун	-9606
▁крепче	-9607
▁мешать	-9608
▁молоко	-9609
▁напали	-9610
▁ничуть	-9611
▁оканчи	-9612
▁очевид	-9613
▁перила	-9614
▁платья	-9615
▁подъез	-9616
▁поехал	-9617
▁поиски	-9618
▁посети	-9619
▁провед	-9620
▁проник	-9621
▁прошли	-9622
▁размер	-9623
▁разъяс	-9624
▁расчет	-9625
▁самому	-9626
▁сирени	-9627
▁следов	-9628
▁смогла	-9629
▁смысла	-9630
напросто	-9631
прерывно	-9632
шинально	-9633
▁Держись	-9634
▁Капитул	-9635
▁Неужели	-9636
▁Старшая	-9637
▁враждеб	-9638
▁госпожи	-9639
▁зависит	-9640
▁заслужи	-9641
▁команди	-9642
▁команды	-9643
▁ладонью	-9644
▁лучница	-9645
▁объятия	-9646
▁перевал	-9647
▁перекры	-9648
▁позволь	-9649
▁поисках	-9650
▁получив	-9651
▁понимал	-9652
▁предыду	-9653
▁проделы	-9654
▁пронизы	-9655
▁раздели	-9656
▁рукавом	-9657
▁сбежали	-9658
▁слышишь	-9659
▁смертью	-9660
▁состоит	-9661
▁сплетни	-9662
▁считала	-9663
▁установ	-9664
▁штандар	-9665
▁экспеди	-9666
▁Гиселера	-9667
▁Кеаллаха	-9668
▁Предупре	-9669
▁воспитан	-9670
▁двинулся	-9671
▁действия	-9672
▁железный	-9673
▁извольте	-9674
▁кинжалом	-9675
▁красного	-9676
▁красноре	-9677
▁названия	-9678
▁половину	-9679
▁посовето	-9680
▁потерять	-9681
▁привлека	-9682
▁разбойни	-9683
▁смеяться	-9684
▁собрался	-9685
▁странной	-9686
▁четверть	-9687
настоящему	-9688
▁Благодаря	-9689
▁Поскольку	-9690
▁вскрикнул	-9691
▁мгновений	-9692
▁навстречу	-9693
▁отношения	-9694
▁полуоборо	-9695
▁поправляя	-9696
▁противоре	-9697
▁рисковать	-9698
▁сожалению	-9699
▁схватился	-9700
▁Виссегерда	-9701
▁Кальдемейн	-9702
▁Необходимо	-9703
▁государыня	-9704
▁магический	-9705
▁переставая	-9706
▁предплечье	-9707
▁пятнадцать	-9708
▁уничтожить	-9709
▁безразлично	-9710
▁королевство	-9711
▁улыбнувшись	-9712
▁удовольствия	-9713
▁обстоятельства	-9714
],	-9715
le	-9716
na	-9717
te	-9718
аа	-9719
ъю	-9720
▁B	-9721
▁N	-9722
ort	-9723
ана	-9724
бла	-9725
был	-9726
вем	-9727
гий	-9728
дую	-9729
дье	-9730
зий	-9731
ира	-9732
кир	-9733
лог	-9734
лят	-9735
мыш	-9736
нел	-9737
няк	-9738
пка	-9739
пок	-9740
рел	-9741
рим	-9742
рлы	-9743
ррр	-9744
спу	-9745
сую	-9746
тец	-9747
тко	-9748
▁Ae	-9749
▁Хе	-9750
▁эн	-9751
ален	-9752
альт	-9753
дным	-9754
дому	-9755
жере	-9756
зами	-9757
зить	-9758
линг	-9759
лкой	-9760
льев	-9761
маты	-9762
мена	-9763
нало	-9764
нкой	-9765
рене	-9766
рили	-9767
рьер	-9768
сная	-9769
ссия	-9770
тиза	-9771
хажи	-9772
хожу	-9773
циоз	-9774
чков	-9775
шная	-9776
▁Sei	-9777
▁Tor	-9778
▁Ард	-9779
▁Вэя	-9780
▁Дев	-9781
▁Жиз	-9782
▁Каз	-9783
▁Кри	-9784
▁Опа	-9785
▁Сед	-9786
▁вли	-9787
▁вои	-9788
▁вом	-9789
▁дар	-9790
▁заж	-9791
▁звя	-9792
▁зол	-9793
▁иму	-9794
▁лоя	-9795
▁оку	-9796
▁соч	-9797
▁эрк	-9798
▁эхо	-9799
ализу	-9800
альто	-9801
гуляр	-9802
еньку	-9803
еньше	-9804
пался	-9805
полне	-9806
ровки	-9807
родер	-9808
стная	-9809
стной	-9810
сывая	-9811
тации	-9812
чаешь	-9813
▁Бриг	-9814
▁Доли	-9815
▁Знал	-9816
▁Млад	-9817
▁Речь	-9818
▁Стой	-9819
▁Стоя	-9820
▁Хиру	-9821
▁акти	-9822
▁вали	-9823
▁васс	-9824
▁взбе	-9825
▁визг	-9826
▁возу	-9827
▁воль	-9828
▁гном	-9829
▁дева	-9830
▁диви	-9831
▁едем	-9832
▁едет	-9833
▁зало	-9834
▁кате	-9835
▁мане	-9836
▁меша	-9837
▁мозг	-9838
▁мрак	-9839
▁мяте	-9840
▁наво	-9841
▁нале	-9842
▁небы	-9843
▁нехо	-9844
▁нося	-9845
▁огор	-9846
▁оско	-9847
▁приг	-9848
▁прор	-9849
▁река	-9850
▁сала	-9851
▁сбор	-9852
▁скру	-9853
▁спаз	-9854
▁спит	-9855
▁спло	-9856
▁став	-9857
▁тьме	-9858
▁хохо	-9859
▁шипя	-9860
вально	-9861
волите	-9862
енький	-9863
каться	-9864
леннее	-9865
ненная	-9866
ненной	-9867
нимали	-9868
спокаи	-9869
ставлю	-9870
телями	-9871
шенной	-9872
щенных	-9873
▁Бывай	-9874
▁Внизу	-9875
▁Гербо	-9876
▁Добро	-9877
▁Купец	-9878
▁Мария	-9879
▁Помню	-9880
▁Туман	-9881
▁белое	-9882
▁белый	-9883
▁верил	-9884
▁ветви	-9885
▁выбро	-9886
▁вынул	-9887
▁выныр	-9888
▁делай	-9889
▁диким	-9890
▁диску	-9891
▁дошло	-9892
▁жертв	-9893
▁затру	-9894
▁иерар	-9895
▁испор	-9896
▁коням	-9897
▁котел	-9898
▁краса	-9899
▁крыши	-9900
▁ложку	-9901
▁монар	-9902
▁морду	-9903
▁надле	-9904
▁нашим	-9905
▁обман	-9906
▁обнял	-9907
▁охота	-9908
▁панци	-9909
▁пивом	-9910
▁повис	-9911
▁повре	-9912
▁подей	-9913
▁подно	-9914
▁прито	-9915
▁проду	-9916
▁проще	-9917
▁разви	-9918
▁разом	-9919
▁своло	-9920
▁сидят	-9921
▁скала	-9922
▁сложи	-9923
▁сорок	-9924
▁сосед	-9925
▁сочув	-9926
▁толпе	-9927
▁тропи	-9928
▁умрет	-9929
▁чаров	-9930
▁череп	-9931
▁чесно	-9932
▁шлема	-9933
▁языке	-9934
ванного	-9935
рования	-9936
ставили	-9937
стерлен	-9938
темарко	-9939
чеством	-9940
▁Seidhe	-9941
▁Боклер	-9942
▁Варнха	-9943
▁Вердэн	-9944
▁Волосы	-9945
▁Вызиме	-9946
▁Галаха	-9947
▁Дыффин	-9948
▁Киврил	-9949
▁Маршал	-9950
▁Погоди	-9951
▁Поняла	-9952
▁Скаггс	-9953
▁Словно	-9954
▁Черная	-9955
▁Эмиель	-9956
▁амулет	-9957
▁биться	-9958
▁болтал	-9959
▁будете	-9960
▁бывают	-9961
▁вблизи	-9962
▁висках	-9963
▁всякие	-9964
▁грозит	-9965
▁группу	-9966
▁звучит	-9967
▁здоров	-9968
▁исходя	-9969
▁корчме	-9970
▁куртку	-9971
▁напере	-9972
▁нового	-9973
▁обменя	-9974
▁обычай	-9975
▁открыл	-9976
▁оттолк	-9977
▁отхлеб	-9978
▁ошибка	-9979
▁ошибки	-9980
▁первую	-9981
▁первых	-9982
▁плечом	-9983
▁пойдем	-9984
▁покале	-9985
▁полага	-9986
▁полном	-9987
▁поскри	-9988
▁правды	-9989
▁преодо	-9990
▁префек	-9991
▁пустой	-9992
▁родите	-9993
▁слушаю	-9994
▁сумела	-9995
▁тепере	-9996
▁тумана	-9997
▁уперся	-9998
▁фокусы	-9999
▁холода	-10000
▁цветов	-10001
▁церемо	-10002
▁черную	-10003
▁шансов	-10004
▁шрамом	-10005
▁щиколо	-10006
альности	-10007
▁Аретузе	-10008
▁Помнишь	-10009
▁арбалет	-10010
▁безжало	-10011
▁брусчат	-10012
▁девочке	-10013
▁дернула	-10014
▁дескать	-10015
▁допплер	-10016
▁другому	-10017
▁железом	-10018
▁жеребца	-10019
▁запрети	-10020
▁зашипел	-10021
▁коричне	-10022
▁металла	-10023
▁минутку	-10024
▁навроде	-10025
▁некраси	-10026
▁перевяз	-10027
▁поехала	-10028
▁поймали	-10029
▁понятно	-10030
▁применя	-10031
▁раненых	-10032
▁сможешь	-10033
▁старика	-10034
▁стенами	-10035
▁страхом	-10036
▁существ	-10037
▁тяжелые	-10038
▁убивают	-10039
▁хозяина	-10040
▁широким	-10041
▁экспери	-10042
▁эльфами	-10043
▁Каэдвене	-10044
▁Например	-10045
▁Фельдмар	-10046
▁вспомнил	-10047
▁выпустил	-10048
▁выхватил	-10049
▁интересы	-10050
▁каменных	-10051
▁коридора	-10052
▁навсегда	-10053
▁называют	-10054
▁намерена	-10055
▁передать	-10056
▁персоной	-10057
▁перчатки	-10058
▁платочек	-10059
▁подробно	-10060
▁поспешно	-10061
▁произвед	-10062
▁размышля	-10063
▁раскрыла	-10064
▁сдержала	-10065
▁способен	-10066
▁холодной	-10067
ственность	-10068
▁Новиграде	-10069
▁выразился	-10070
▁кавалерии	-10071
▁королевой	-10072
▁малейшего	-10073
▁наездника	-10074
▁наклонила	-10075
▁отношении	-10076
▁полуэльфа	-10077
▁появилась	-10078
▁появились	-10079
▁привилеги	-10080
▁принцессу	-10081
▁протянула	-10082
▁разноцвет	-10083
▁тщательно	-10084
▁университ	-10085
▁чудовищно	-10086
▁Абатемарко	-10087
▁воспринима	-10088
▁закашлялся	-10089
▁ландскнехт	-10090
▁магические	-10091
▁поглядывая	-10092
▁постепенно	-10093
▁предложить	-10094
▁противника	-10095
▁встретиться	-10096
▁здравствует	-10097
▁изображение	-10098
▁королевские	-10099
▁королевских	-10100
▁отправиться	-10101
▁поверхность	-10102
▁пошевелился	-10103
▁принадлежит	-10104
▁прищурилась	-10105
▁серебряными	-10106
▁согласилась	-10107
▁возвращаться	-10108
▁наклонившись	-10109
▁рассматривал	-10110
▁прикосновение	-10111
▁предварительно	-10112
bl	-10113
yn	-10114
вр	-10115
ив	-10116
▁R	-10117
sse	-10118
атр	-10119
бку	-10120
век	-10121
вим	-10122
жах	-10123
май	-10124
мно	-10125
моз	-10126
нор	-10127
сим	-10128
спа	-10129
тир	-10130
чак	-10131
чше	-10132
шни	-10133
▁Ин	-10134
▁ву	-10135
Алки	-10136
бает	-10137
дбру	-10138
двор	-10139
дена	-10140
едур	-10141
кажи	-10142
лова	-10143
мара	-10144
мить	-10145
нина	-10146
нишь	-10147
сиди	-10148
сило	-10149
сите	-10150
скре	-10151
стаи	-10152
тная	-10153
тных	-10154
ходы	-10155
▁Атт	-10156
▁Бес	-10157
▁Бит	-10158
▁Дед	-10159
▁Кли	-10160
▁Муд	-10161
▁Пло	-10162
▁Ужа	-10163
▁Экс	-10164
▁вре	-10165
▁гем	-10166
▁гры	-10167
▁дуб	-10168
▁душ	-10169
▁ков	-10170
▁лом	-10171
▁пил	-10172
▁фуж	-10173
▁шур	-10174
бирай	-10175
блема	-10176
вающе	-10177
венок	-10178
дрифа	-10179
ереди	-10180
ждено	-10181
жению	-10182
женни	-10183
зером	-10184
ились	-10185
каясь	-10186
лавли	-10187
мистр	-10188
носит	-10189
скажу	-10190
ствуй	-10191
телен	-10192
телям	-10193
хнуть	-10194
честь	-10195
щенно	-10196
▁Аубе	-10197
▁Бери	-10198
▁Быть	-10199
▁Врем	-10200
▁Вспо	-10201
▁Двое	-10202
▁Дела	-10203
▁Дожд	-10204
▁Исти	-10205
▁Наша	-10206
▁Руки	-10207
▁Сами	-10208
▁Сигр	-10209
▁Силы	-10210
▁Факт	-10211
▁Хозя	-10212
▁банк	-10213
▁була	-10214
▁буль	-10215
▁взма	-10216
▁взры	-10217
▁вски	-10218
▁выбо	-10219
▁выка	-10220
▁вылу	-10221
▁грав	-10222
▁дама	-10223
▁зала	-10224
▁залы	-10225
▁зари	-10226
▁зима	-10227
▁зуба	-10228
▁игры	-10229
▁изба	-10230
▁изли	-10231
▁иско	-10232
▁испе	-10233
▁ками	-10234
▁клуб	-10235
▁коси	-10236
▁косо	-10237
▁косу	-10238
▁лбом	-10239
▁лопа	-10240
▁луки	-10241
▁маят	-10242
▁мною	-10243
▁мура	-10244
▁нозд	-10245
▁озер	-10246
▁отго	-10247
▁отом	-10248
▁поту	-10249
▁реак	-10250
▁рыбо	-10251
▁снах	-10252
▁стри	-10253
▁твор	-10254
▁теку	-10255
▁тюрь	-10256
▁урод	-10257
▁фрон	-10258
ванную	-10259
виград	-10260
вность	-10261
глазый	-10262
ждении	-10263
скорее	-10264
слепую	-10265
спекти	-10266
шалась	-10267
▁Башни	-10268
▁Внима	-10269
▁Вроде	-10270
▁Драко	-10271
▁Знала	-10272
▁Каким	-10273
▁Коман	-10274
▁Крыси	-10275
▁Левек	-10276
▁Напра	-10277
▁Остро	-10278
▁Подой	-10279
▁Презр	-10280
▁Редан	-10281
▁бакла	-10282
▁банды	-10283
▁бежал	-10284
▁битве	-10285
▁богат	-10286
▁велит	-10287
▁ветки	-10288
▁видне	-10289
▁вынес	-10290
▁дезер	-10291
▁делом	-10292
▁дымом	-10293
▁жерди	-10294
▁жидко	-10295
▁запро	-10296
▁звене	-10297
▁звука	-10298
▁кисти	-10299
▁колеб	-10300
▁конем	-10301
▁кость	-10302
▁крыла	-10303
▁куски	-10304
▁левом	-10305
▁лирий	-10306
▁малыш	-10307
▁манти	-10308
▁масси	-10309
▁матер	-10310
▁миной	-10311
▁морде	-10312
▁нагай	-10313
▁найду	-10314
▁носил	-10315
▁орали	-10316
▁ощети	-10317
▁плиты	-10318
▁поплы	-10319
▁потем	-10320
▁правы	-10321
▁просе	-10322
▁пятер	-10323
▁рысью	-10324
▁рябой	-10325
▁сапож	-10326
▁семей	-10327
▁серде	-10328
▁слыша	-10329
▁смело	-10330
▁соблю	-10331
▁соеди	-10332
▁сполз	-10333
▁терпи	-10334
▁тобою	-10335
▁узнаю	-10336
▁укреп	-10337
▁умеет	-10338
▁упали	-10339
▁упира	-10340
▁хворо	-10341
▁химер	-10342
▁ходил	-10343
▁хотим	-10344
▁целый	-10345
▁чужой	-10346
скочить	-10347
ченными	-10348
чувство	-10349
шинство	-10350
▁Блавик	-10351
▁Вполне	-10352
▁Лошадь	-10353
▁Ридбру	-10354
▁Эстера	-10355
▁Ярпена	-10356
▁бежали	-10357
▁богини	-10358
▁виконт	-10359
▁выворо	-10360
▁глупые	-10361
▁дождем	-10362
▁забуду	-10363
▁звездо	-10364
▁импери	-10365
▁истины	-10366
▁каждая	-10367
▁колеба	-10368
▁назвал	-10369
▁назнач	-10370
▁натуре	-10371
▁обманы	-10372
▁обняла	-10373
▁обойти	-10374
▁обходя	-10375
▁оставь	-10376
▁отрази	-10377
▁оценил	-10378
▁перепу	-10379
▁пласти	-10380
▁платок	-10381
▁платят	-10382
▁подчер	-10383
▁покажу	-10384
▁полная	-10385
▁прегра	-10386
▁привид	-10387
▁раздум	-10388
▁свечей	-10389
▁седлах	-10390
▁сигнал	-10391
▁скажем	-10392
▁случаю	-10393
▁сорвал	-10394
▁спуска	-10395
▁стражи	-10396
▁судьбу	-10397
▁убитых	-10398
▁усмеха	-10399
▁устало	-10400
▁утенок	-10401
▁ухмыль	-10402
▁ученый	-10403
▁хищной	-10404
▁ярость	-10405
ствующие	-10406
▁Галахад	-10407
▁Заречья	-10408
▁Львенок	-10409
▁Позволь	-10410
▁Ручаюсь	-10411
▁боялась	-10412
▁вершины	-10413
▁вопреки	-10414
▁вставая	-10415
▁выгляды	-10416
▁выступа	-10417
▁годится	-10418
▁деревне	-10419
▁долетел	-10420
▁захочет	-10421
▁зеленых	-10422
▁когтями	-10423
▁лошадью	-10424
▁малышка	-10425
▁награду	-10426
▁надежды	-10427
▁ожидала	-10428
▁острова	-10429
▁отступа	-10430
▁охотник	-10431
▁передви	-10432
▁понрави	-10433
▁правиль	-10434
▁привела	-10435
▁придума	-10436
▁природе	-10437
▁проблем	-10438
▁протяги	-10439
▁радость	-10440
▁солдата	-10441
▁сотряса	-10442
▁счастья	-10443
▁тяжелый	-10444
▁убежать	-10445
▁успокаи	-10446
▁хватает	-10447
▁хрустом	-10448
▁Гвинблей	-10449
▁Компания	-10450
▁Останови	-10451
▁выдохнул	-10452
▁декольте	-10453
▁десятник	-10454
▁заставил	-10455
▁захочешь	-10456
▁избежать	-10457
▁изменить	-10458
▁казалась	-10459
▁каменным	-10460
▁кинулась	-10461
▁коснулся	-10462
▁красивой	-10463
▁найдется	-10464
▁невнятно	-10465
▁новиград	-10466
▁огромных	-10467
▁отседова	-10468
▁отчаянно	-10469
▁паршивый	-10470
▁перевяза	-10471
▁пламенем	-10472
▁побольше	-10473
▁поклялся	-10474
▁получила	-10475
▁посматри	-10476
▁прикрыла	-10477
▁раздался	-10478
▁размеров	-10479
▁рассвета	-10480
▁сверкнул	-10481
▁середину	-10482
▁сплюнула	-10483
▁странные	-10484
▁теперича	-10485
▁флоренов	-10486
▁холодная	-10487
▁Анарьетта	-10488
▁Наверняка	-10489
▁Сигрдрифа	-10490
▁Успокойся	-10491
▁ведьмачий	-10492
▁вернулась	-10493
▁выполнять	-10494
▁заплатить	-10495
▁наградами	-10496
▁намерения	-10497
▁невысокий	-10498
▁ненависти	-10499
▁огромного	-10500
▁огромными	-10501
▁отказался	-10502
▁очередную	-10503
▁парировал	-10504
▁перспекти	-10505
▁повторять	-10506
▁последние	-10507
▁профессии	-10508
▁прошептал	-10509
▁скоростью	-10510
▁сообразил	-10511
▁стражники	-10512
▁страшного	-10513
▁уставился	-10514
▁беспокойно	-10515
▁двенадцать	-10516
▁догадаться	-10517
▁магических	-10518
▁машинально	-10519
▁настроение	-10520
▁незнакомец	-10521
▁последстви	-10522
▁приходится	-10523
▁прищурился	-10524
▁рассказать	-10525
▁расстоянии	-10526
▁территории	-10527
▁удивляться	-10528
▁утверждать	-10529
▁Большинство	-10530
▁Догадываюсь	-10531
▁благородные	-10532
▁государства	-10533
▁императором	-10534
▁направлении	-10535
▁оказывается	-10536
▁покачнулась	-10537
▁понадобится	-10538
▁рассчитывал	-10539
▁отвернувшись	-10540
▁рассчитывать	-10541
▁подозрительно	-10542
on	-10543
Та	-10544
йи	-10545
▁9	-10546
▁F	-10547
▁Z	-10548
aen	-10549
Под	-10550
брь	-10551
бых	-10552
вгу	-10553
вес	-10554
дях	-10555
едд	-10556
жже	-10557
жли	-10558
йди	-10559
кле	-10560
нга	-10561
нус	-10562
нцу	-10563
нче	-10564
шах	-10565
▁10	-10566
▁12	-10567
▁Ой	-10568
▁Тя	-10569
▁фе	-10570
кают	-10571
коли	-10572
лясь	-10573
мело	-10574
пили	-10575
роле	-10576
роли	-10577
рому	-10578
скам	-10579
сное	-10580
тихо	-10581
тную	-10582
тору	-10583
хает	-10584
шних	-10585
ьера	-10586
▁Гон	-10587
▁Дун	-10588
▁Зак	-10589
▁Каж	-10590
▁Кот	-10591
▁Мил	-10592
▁Пле	-10593
▁Сво	-10594
▁арт	-10595
▁жаг	-10596
▁заш	-10597
▁май	-10598
▁ноч	-10599
▁ныр	-10600
▁оча	-10601
▁суб	-10602
▁ход	-10603
▁хро	-10604
▁цве	-10605
бадур	-10606
вного	-10607
генна	-10608
делся	-10609
зобра	-10610
зывая	-10611
летит	-10612
летия	-10613
ничто	-10614
нокни	-10615
слись	-10616
стили	-10617
траха	-10618
хивая	-10619
хнули	-10620
чении	-10621
чиком	-10622
чника	-10623
шился	-10624
шлось	-10625
щении	-10626
этого	-10627
▁Ваши	-10628
▁Вста	-10629
▁Губы	-10630
▁Дарн	-10631
▁Едва	-10632
▁Каса	-10633
▁Кого	-10634
▁Люсь	-10635
▁Нету	-10636
▁Обра	-10637
▁Пого	-10638
▁Суще	-10639
▁Сюда	-10640
▁Теле	-10641
▁Удар	-10642
▁Хаос	-10643
▁акку	-10644
▁брез	-10645
▁влез	-10646
▁воза	-10647
▁впря	-10648
▁вряд	-10649
▁вход	-10650
▁выло	-10651
▁выши	-10652
▁горь	-10653
▁дина	-10654
▁доме	-10655
▁жара	-10656
▁зажи	-10657
▁ишшо	-10658
▁кнех	-10659
▁книг	-10660
▁княз	-10661
▁коша	-10662
▁латы	-10663
▁лего	-10664
▁моти	-10665
▁несу	-10666
▁ниса	-10667
▁отре	-10668
▁пазу	-10669
▁певу	-10670
▁поси	-10671
▁птиц	-10672
▁разе	-10673
▁ритм	-10674
▁сель	-10675
▁смол	-10676
▁снаб	-10677
▁спор	-10678
▁стае	-10679
▁тщет	-10680
▁уско	-10681
▁ущер	-10682
▁фона	-10683
▁цены	-10684
▁ярко	-10685
ireael	-10686
альном	-10687
билась	-10688
галось	-10689
доокая	-10690
жаться	-10691
кратно	-10692
мотала	-10693
нейший	-10694
палась	-10695
ренный	-10696
сторон	-10697
сточки	-10698
таться	-10699
твоему	-10700
ченным	-10701
читать	-10702
чность	-10703
▁Аттре	-10704
▁Глупо	-10705
▁Канта	-10706
▁Пегас	-10707
▁Прави	-10708
▁Яруге	-10709
▁бегле	-10710
▁безлю	-10711
▁битва	-10712
▁брюки	-10713
▁верст	-10714
▁винов	-10715
▁висит	-10716
▁вмеши	-10717
▁входа	-10718
▁добер	-10719
▁желто	-10720
▁завое	-10721
▁замах	-10722
▁засох	-10723
▁затре	-10724
▁кисло	-10725
▁книга	-10726
▁комор	-10727
▁косма	-10728
▁костя	-10729
▁лодке	-10730
▁любое	-10731
▁магию	-10732
▁мечей	-10733
▁недур	-10734
▁несло	-10735
▁отрав	-10736
▁очеви	-10737
▁плащи	-10738
▁подпи	-10739
▁помог	-10740
▁поясе	-10741
▁приез	-10742
▁разда	-10743
▁разоб	-10744
▁ранен	-10745
▁распа	-10746
▁расче	-10747
▁рубай	-10748
▁рынок	-10749
▁связи	-10750
▁склад	-10751
▁спаси	-10752
▁споты	-10753
▁сухой	-10754
▁телом	-10755
▁течет	-10756
▁титул	-10757
▁траве	-10758
▁умень	-10759
▁упомя	-10760
▁учени	-10761
▁ушами	-10762
▁факта	-10763
▁худой	-10764
▁шести	-10765
▁шкату	-10766
▁шутку	-10767
вычайно	-10768
ленными	-10769
ствуешь	-10770
шельник	-10771
▁Артауд	-10772
▁Веркта	-10773
▁Далеко	-10774
▁Должен	-10775
▁Короля	-10776
▁Натали	-10777
▁Невилл	-10778
▁Пангра	-10779
▁Садись	-10780
▁Сделай	-10781
▁Солдат	-10782
▁Тракти	-10783
▁Черных	-10784
▁Эревар	-10785
▁бакала	-10786
▁беседы	-10787
▁боялся	-10788
▁вашему	-10789
▁вдвоем	-10790
▁вспоте	-10791
▁втянул	-10792
▁вытара	-10793
▁глупая	-10794
▁девять	-10795
▁думали	-10796
▁железя	-10797
▁забыли	-10798
▁защища	-10799
▁золото	-10800
▁истека	-10801
▁камнях	-10802
▁корпус	-10803
▁кричит	-10804
▁куртки	-10805
▁ладонь	-10806
▁легкой	-10807
▁локоть	-10808
▁любишь	-10809
▁манжет	-10810
▁найдет	-10811
▁намест	-10812
▁напада	-10813
▁натяну	-10814
▁начнет	-10815
▁ночной	-10816
▁образу	-10817
▁ожидая	-10818
▁озером	-10819
▁отража	-10820
▁первое	-10821
▁первые	-10822
▁перьев	-10823
▁плащах	-10824
▁погони	-10825
▁подсве	-10826
▁посему	-10827
▁поторо	-10828
▁предви	-10829
▁предус	-10830
▁прибре	-10831
▁прибыл	-10832
▁придер	-10833
▁провел	-10834
▁распах	-10835
▁ругань	-10836
▁сделав	-10837
▁службы	-10838
▁сообра	-10839
▁стоном	-10840
▁стреми	-10841
▁таращи	-10842
▁тонкие	-10843
▁усилия	-10844
▁уходит	-10845
▁фальши	-10846
▁чудища	-10847
ристокра	-10848
▁Быстрее	-10849
▁Впереди	-10850
▁Господи	-10851
▁Лучница	-10852
▁Морхена	-10853
▁Турсеах	-10854
▁Харшейм	-10855
▁Хотспор	-10856
▁Чувство	-10857
▁большое	-10858
▁вереско	-10859
▁вопроса	-10860
▁впустую	-10861
▁вслепую	-10862
▁выбрала	-10863
▁высокая	-10864
▁высокие	-10865
▁границы	-10866
▁давайте	-10867
▁девушке	-10868
▁десятки	-10869
▁дьявола	-10870
▁загляды	-10871
▁заговор	-10872
▁заканчи	-10873
▁зеленый	-10874
▁кафтане	-10875
▁кончать	-10876
▁королям	-10877
▁молодая	-10878
▁мчалась	-10879
▁наблюда	-10880
▁наступа	-10881
▁никакие	-10882
▁опуская	-10883
▁особого	-10884
▁первыми	-10885
▁перешли	-10886
▁погибла	-10887
▁подошли	-10888
▁полночь	-10889
▁положив	-10890
▁понимая	-10891
▁почесал	-10892
▁прикаса	-10893
▁прикрыл	-10894
▁раскрыв	-10895
▁ребенку	-10896
▁рукояти	-10897
▁служить	-10898
▁совести	-10899
▁сотвори	-10900
▁считает	-10901
▁упырица	-10902
▁ухватил	-10903
▁шапочку	-10904
держаться	-10905
ствование	-10906
▁Академии	-10907
▁Благород	-10908
▁Крылатый	-10909
▁Ленточки	-10910
▁Недамира	-10911
▁Проблема	-10912
▁Трубадур	-10913
▁Цидариса	-10914
▁вдобавок	-10915
▁воротник	-10916
▁выскольз	-10917
▁действий	-10918
▁добавить	-10919
▁зависимо	-10920
▁закричал	-10921
▁категори	-10922
▁лаборато	-10923
▁листьями	-10924
▁лучников	-10925
▁надеждой	-10926
▁напротив	-10927
▁начнется	-10928
▁небрежно	-10929
▁обеспоко	-10930
▁окружили	-10931
▁оставили	-10932
▁парализо	-10933
▁переломи	-10934
▁половины	-10935
▁положила	-10936
▁помолчал	-10937
▁поскорее	-10938
▁посмотри	-10939
▁префекта	-10940
▁рассудка	-10941
▁сдержать	-10942
▁сопротив	-10943
▁составля	-10944
▁уважения	-10945
▁украдкой	-10946
▁частично	-10947
▁двинулись	-10948
▁заставить	-10949
▁командова	-10950
▁настоящий	-10951
▁отблагода	-10952
▁отомстить	-10953
▁последних	-10954
▁предстоит	-10955
▁признаков	-10956
▁проверить	-10957
▁следующее	-10958
▁сообщение	-10959
▁стиснутые	-10960
▁темерские	-10961
▁эликсиров	-10962
▁Гвинблейдд	-10963
▁выругалась	-10964
▁заниматься	-10965
▁отделаться	-10966
▁поселенцев	-10967
▁потянулась	-10968
▁расстояние	-10969
▁решительно	-10970
▁серебряный	-10971
▁физиономии	-10972
▁встретились	-10973
▁выпрямилась	-10974
▁королевский	-10975
▁лихорадочно	-10976
▁любопытства	-10977
▁молниеносно	-10978
▁намеревался	-10979
▁попробовать	-10980
▁потребуется	-10981
▁собственным	-10982
▁спокойствие	-10983
▁уверенность	-10984
▁Вильгефорцем	-10985
▁Нильфгаардец	-10986
▁воспоминания	-10987
▁единственная	-10988
▁пользовались	-10989
▁развернулась	-10990
▁присоединился	-10991
▁доказательства	-10992
im	-10993
нц	-10994
од	-10995
ьи	-10996
бан	-10997
гую	-10998
дию	-10999
дор	-11000
кни	-11001
люб	-11002
пру	-11003
сад	-11004
тру	-11005
тям	-11006
ука	-11007
фот	-11008
чан	-11009
▁Gw	-11010
▁Ma	-11011
▁Вс	-11012
▁Жо	-11013
▁Иу	-11014
▁Нэ	-11015
▁ой	-11016
вкой	-11017
гови	-11018
жишь	-11019
жном	-11020
зопа	-11021
ится	-11022
йсги	-11023
ктор	-11024
ланк	-11025
мили	-11026
нати	-11027
нера	-11028
низм	-11029
оном	-11030
приз	-11031
пуль	-11032
рень	-11033
стию	-11034
тком	-11035
тром	-11036
фици	-11037
фмай	-11038
чину	-11039
щало	-11040
щешь	-11041
▁aen	-11042
▁Аар	-11043
▁Вир	-11044
▁Гак	-11045
▁Дил	-11046
▁Иду	-11047
▁Рой	-11048
▁Уби	-11049
▁Фэн	-11050
▁Шиа	-11051
▁вал	-11052
▁выт	-11053
▁выу	-11054
▁гиб	-11055
▁ела	-11056
▁зао	-11057
▁зия	-11058
▁иво	-11059
▁мон	-11060
▁нез	-11061
▁ниж	-11062
▁ода	-11063
▁оже	-11064
▁опи	-11065
▁оси	-11066
▁сир	-11067
▁сня	-11068
▁сра	-11069
▁тет	-11070
▁ура	-11071
▁щит	-11072
Генри	-11073
альон	-11074
более	-11075
гнуло	-11076
енями	-11077
етьми	-11078
зости	-11079
колка	-11080
комен	-11081
леном	-11082
минал	-11083
нками	-11084
орети	-11085
прият	-11086
скает	-11087
слуши	-11088
снула	-11089
стьем	-11090
чайте	-11091
чному	-11092
шению	-11093
щенни	-11094
ялись	-11095
▁Всех	-11096
▁Иску	-11097
▁Йожа	-11098
▁Кови	-11099
▁Коль	-11100
▁Ложи	-11101
▁Пове	-11102
▁Рука	-11103
▁Скар	-11104
▁Хлоя	-11105
▁Цека	-11106
▁Цирю	-11107
▁Язон	-11108
▁анти	-11109
▁ассо	-11110
▁били	-11111
▁виды	-11112
▁воин	-11113
▁дают	-11114
▁долю	-11115
▁дрем	-11116
▁дыры	-11117
▁жрат	-11118
▁забе	-11119
▁запы	-11120
▁изби	-11121
▁копи	-11122
▁лепе	-11123
▁мсти	-11124
▁мышь	-11125
▁мяса	-11126
▁нажи	-11127
▁нака	-11128
▁нащу	-11129
▁осты	-11130
▁пищи	-11131
▁плеч	-11132
▁побу	-11133
▁полз	-11134
▁роли	-11135
▁свед	-11136
▁сгор	-11137
▁сдви	-11138
▁терп	-11139
▁хате	-11140
▁цену	-11141
▁чудо	-11142
вилось	-11143
каньем	-11144
рокопу	-11145
ставим	-11146
частли	-11147
чаться	-11148
шением	-11149
▁Возду	-11150
▁Грамо	-11151
▁Давен	-11152
▁Объяс	-11153
▁Окуль	-11154
▁Ошиба	-11155
▁Позже	-11156
▁Скоро	-11157
▁Фиона	-11158
▁Хотел	-11159
▁Шпион	-11160
▁безна	-11161
▁берем	-11162
▁блеск	-11163
▁болот	-11164
▁веков	-11165
▁врага	-11166
▁горле	-11167
▁горлу	-11168
▁гость	-11169
▁гриву	-11170
▁густо	-11171
▁делал	-11172
▁делах	-11173
▁дорог	-11174
▁доспе	-11175
▁думая	-11176
▁ехала	-11177
▁ждали	-11178
▁женой	-11179
▁жилах	-11180
▁замор	-11181
▁зерно	-11182
▁зрели	-11183
▁имели	-11184
▁имело	-11185
▁кишки	-11186
▁крика	-11187
▁крити	-11188
▁кружа	-11189
▁круже	-11190
▁курто	-11191
▁левый	-11192
▁лезть	-11193
▁лояль	-11194
▁мороз	-11195
▁морщи	-11196
▁непос	-11197
▁обиль	-11198
▁обыча	-11199
▁ожере	-11200
▁подра	-11201
▁поеду	-11202
▁пожар	-11203
▁помал	-11204
▁попол	-11205
▁пошло	-11206
▁прези	-11207
▁прома	-11208
▁пруда	-11209
▁равни	-11210
▁распе	-11211
▁риску	-11212
▁рынке	-11213
▁связь	-11214
▁слезя	-11215
▁снять	-11216
▁стоят	-11217
▁тайна	-11218
▁терро	-11219
▁умоля	-11220
▁утрен	-11221
▁участ	-11222
▁холме	-11223
▁читал	-11224
▁шансы	-11225
▁эффек	-11226
вленных	-11227
говорим	-11228
жденная	-11229
ливость	-11230
нившись	-11231
ступала	-11232
▁Вопрос	-11233
▁Начина	-11234
▁Ногорн	-11235
▁Обычно	-11236
▁Опусти	-11237
▁Отойди	-11238
▁Оттуда	-11239
▁Плотву	-11240
▁Стрела	-11241
▁Хозяин	-11242
▁Хофмай	-11243
▁агенты	-11244
▁аресто	-11245
▁борьбу	-11246
▁бровей	-11247
▁велико	-11248
▁весной	-11249
▁влетел	-11250
▁впрямь	-11251
▁выводы	-11252
▁выреза	-11253
▁гневно	-11254
▁говари	-11255
▁голода	-11256
▁дворце	-11257
▁дворцо	-11258
▁детьми	-11259
▁дочень	-11260
▁дурень	-11261
▁забота	-11262
▁защиты	-11263
▁звезда	-11264
▁камина	-11265
▁клубок	-11266
▁кольцо	-11267
▁контра	-11268
▁кресле	-11269
▁кустар	-11270
▁кустах	-11271
▁лагерь	-11272
▁лесами	-11273
▁мокрые	-11274
▁началь	-11275
▁недель	-11276
▁никуда	-11277
▁носить	-11278
▁обрыва	-11279
▁обсиди	-11280
▁ожесто	-11281
▁острия	-11282
▁отодви	-11283
▁папоро	-11284
▁пинком	-11285
▁платит	-11286
▁помнил	-11287
▁разных	-11288
▁рассла	-11289
▁резкий	-11290
▁сжимая	-11291
▁слушай	-11292
▁смотре	-11293
▁сотник	-11294
▁справа	-11295
▁справи	-11296
▁столба	-11297
▁столбы	-11298
▁страну	-11299
▁увидит	-11300
▁упорно	-11301
▁флакон	-11302
▁шерстя	-11303
▁эшафот	-11304
▁языком	-11305
Эстерлен	-11306
вающийся	-11307
жительно	-11308
ровалась	-11309
рованной	-11310
рованный	-11311
рованных	-11312
▁Zireael	-11313
▁Ветрени	-11314
▁Виндсор	-11315
▁Вороная	-11316
▁Гораздо	-11317
▁Люсьена	-11318
▁Однажды	-11319
▁Танедда	-11320
▁Шиадаль	-11321
▁баррика	-11322
▁бесстра	-11323
▁бортник	-11324
▁бочонок	-11325
▁веревку	-11326
▁вершине	-11327
▁вечером	-11328
▁воронки	-11329
▁городок	-11330
▁границе	-11331
▁границу	-11332
▁деревен	-11333
▁дрожала	-11334
▁забывай	-11335
▁заверил	-11336
▁зверски	-11337
▁зеленой	-11338
▁княгини	-11339
▁команде	-11340
▁конфлик	-11341
▁корабль	-11342
▁королем	-11343
▁кровати	-11344
▁любовью	-11345
▁мародер	-11346
▁маэстро	-11347
▁месяцев	-11348
▁молодых	-11349
▁никакая	-11350
▁обещала	-11351
▁оставив	-11352
▁партиза	-11353
▁перепол	-11354
▁платить	-11355
▁поехали	-11356
▁полукру	-11357
▁получше	-11358
▁пополам	-11359
▁попробу	-11360
▁портала	-11361
▁порядка	-11362
▁престол	-11363
▁приняла	-11364
▁проходя	-11365
▁регуляр	-11366
▁решения	-11367
▁саданул	-11368
▁сделает	-11369
▁совмест	-11370
▁сокрови	-11371
▁темными	-11372
▁туманом	-11373
▁умирает	-11374
▁упырицу	-11375
▁философ	-11376
▁хороший	-11377
▁целиком	-11378
▁шапочке	-11379
▁ядовито	-11380
казавшись	-11381
матически	-11382
прашивать	-11383
▁Ангулему	-11384
▁Гербольт	-11385
▁Дийкстре	-11386
▁Крегенна	-11387
▁Махакаме	-11388
▁Медальон	-11389
▁Напрасно	-11390
▁Придется	-11391
▁Расскажи	-11392
▁Сорокопу	-11393
▁Спокойно	-11394
▁Чудовище	-11395
▁благосло	-11396
▁большого	-11397
▁быстрыми	-11398
▁возврати	-11399
▁врезался	-11400
▁девчонки	-11401
▁допплера	-11402
▁дрогнули	-11403
▁задрожал	-11404
▁зелеными	-11405
▁компанию	-11406
▁конкурен	-11407
▁красными	-11408
▁крепость	-11409
▁намерены	-11410
▁началось	-11411
▁нечелове	-11412
▁объятиях	-11413
▁огромное	-11414
▁огромную	-11415
▁оскорбля	-11416
▁отбросил	-11417
▁ощущение	-11418
▁перевала	-11419
▁пожелает	-11420
▁позволит	-11421
▁покрытые	-11422
▁половина	-11423
▁посерьез	-11424
▁предпола	-11425
▁предстоя	-11426
▁прогресс	-11427
▁пропасти	-11428
▁раздумья	-11429
▁согласия	-11430
▁стрелять	-11431
▁торговец	-11432
▁уважение	-11433
▁Остальное	-11434
▁Последний	-11435
▁аристокра	-11436
▁блестящих	-11437
▁взглядами	-11438
▁воспользу	-11439
▁вынуждена	-11440
▁держаться	-11441
▁застонала	-11442
▁интересом	-11443
▁ненависть	-11444
▁несчастье	-11445
▁отозвался	-11446
▁спокойный	-11447
▁Звездоокая	-11448
▁Немедленно	-11449
▁водорослей	-11450
▁восстанови	-11451
▁заклинаний	-11452
▁интересуют	-11453
▁крыжовника	-11454
▁определить	-11455
▁отказаться	-11456
▁отсутствие	-11457
▁проснулась	-11458
▁прошептала	-11459
▁собиралась	-11460
▁содержимое	-11461
▁специально	-11462
▁воскликнула	-11463
▁заклинанием	-11464
▁предпочитаю	-11465
▁разбойников	-11466
▁управляющий	-11467
▁беспокойство	-11468
▁четырнадцать	-11469
▁Неожиданность	-11470
▁богослужитель	-11471
▁неудивительно	-11472
▁нильфгаардская	-11473
▁противоположной	-11474
.[	-11475
hy	-11476
ic	-11477
ir	-11478
it	-11479
Во	-11480
Ну	-11481
Что	-11482
ано	-11483
бес	-11484
вий	-11485
имо	-11486
леп	-11487
лив	-11488
лож	-11489
мем	-11490
мею	-11491
пай	-11492
пку	-11493
рив	-11494
руй	-11495
сец	-11496
сну	-11497
ссу	-11498
тон	-11499
цца	-11500
чны	-11501
шай	-11502
шмя	-11503
шут	-11504
▁En	-11505
▁Ор	-11506
▁Пы	-11507
▁съ	-11508
▁ся	-11509
▁уч	-11510
▁хе	-11511
eath	-11512
века	-11513
витя	-11514
вную	-11515
выше	-11516
вязи	-11517
гены	-11518
грам	-11519
дило	-11520
дище	-11521
едро	-11522
ента	-11523
ждую	-11524
кало	-11525
лада	-11526
лело	-11527
ллен	-11528
мала	-11529
нэйд	-11530
пако	-11531
пана	-11532
плет	-11533
ронт	-11534
стан	-11535
стив	-11536
стий	-11537
теги	-11538
тери	-11539
фами	-11540
▁Ари	-11541
▁Гви	-11542
▁Ины	-11543
▁Кам	-11544
▁Мех	-11545
▁Пес	-11546
▁Пит	-11547
▁Свя	-11548
▁Увы	-11549
▁Улы	-11550
▁Фла	-11551
▁Фор	-11552
▁Эур	-11553
▁глы	-11554
▁даю	-11555
▁дуд	-11556
▁зим	-11557
▁зыр	-11558
▁осе	-11559
▁пта	-11560
▁сно	-11561
▁суд	-11562
▁уез	-11563
▁чут	-11564
laine	-11565
аррак	-11566
ватой	-11567
волно	-11568
воорт	-11569
дении	-11570
дятся	-11571
жками	-11572
зации	-11573
зиден	-11574
клами	-11575
ковал	-11576
ковым	-11577
легко	-11578
мочка	-11579
неный	-11580
синга	-11581
стных	-11582
чиков	-11583
чьими	-11584
штано	-11585
щайся	-11586
щание	-11587
щемся	-11588
▁Gwyn	-11589
▁vort	-11590
▁Ваша	-11591
▁Верх	-11592
▁Выле	-11593
▁Гесо	-11594
▁День	-11595
▁Дети	-11596
▁Моль	-11597
▁Напа	-11598
▁Отли	-11599
▁Рабо	-11600
▁Скри	-11601
▁Таль	-11602
▁аван	-11603
▁авгу	-11604
▁арти	-11605
▁бишь	-11606
▁выте	-11607
▁гнез	-11608
▁дока	-11609
▁живу	-11610
▁злым	-11611
▁изда	-11612
▁излу	-11613
▁ипат	-11614
▁ищет	-11615
▁ковы	-11616
▁коше	-11617
▁ложа	-11618
▁лосо	-11619
▁миль	-11620
▁мочи	-11621
▁муки	-11622
▁мясо	-11623
▁натя	-11624
▁несо	-11625
▁обож	-11626
▁обши	-11627
▁октя	-11628
▁осед	-11629
▁пены	-11630
▁пнул	-11631
▁позы	-11632
▁посу	-11633
▁пошу	-11634
▁рана	-11635
▁раса	-11636
▁рису	-11637
▁свал	-11638
▁сети	-11639
▁скал	-11640
▁слад	-11641
▁смор	-11642
▁снов	-11643
▁стря	-11644
▁сути	-11645
▁труд	-11646
▁тьму	-11647
▁тьфу	-11648
▁умел	-11649
▁уров	-11650
▁ушли	-11651
▁флей	-11652
▁форм	-11653
▁хреб	-11654
▁хрип	-11655
▁чуда	-11656
▁шанс	-11657
▁щети	-11658
▁яйца	-11659
водить	-11660
дденом	-11661
добнее	-11662
лилась	-11663
манные	-11664
резали	-11665
ренной	-11666
рующие	-11667
щенное	-11668
щимися	-11669
▁Армия	-11670
▁Более	-11671
▁Бреде	-11672
▁Гаксо	-11673
▁Гляди	-11674
▁Ийсги	-11675
▁Лысый	-11676
▁Людей	-11677
▁Недур	-11678
▁Ничто	-11679
▁Одним	-11680
▁Поста	-11681
▁Сожал	-11682
▁Стари	-11683
▁Холме	-11684
▁Хотли	-11685
▁Часть	-11686
▁Эксет	-11687
▁Эрвил	-11688
▁арену	-11689
▁банда	-11690
▁белиз	-11691
▁белых	-11692
▁битвы	-11693
▁блока	-11694
▁боком	-11695
▁вопло	-11696
▁выдал	-11697
▁горла	-11698
▁дадут	-11699
▁девки	-11700
▁девок	-11701
▁делая	-11702
▁дикие	-11703
▁дошли	-11704
▁ждала	-11705
▁ждешь	-11706
▁интел	-11707
▁искал	-11708
▁карты	-11709
▁кроны	-11710
▁кругу	-11711
▁крыло	-11712
▁купца	-11713
▁кухне	-11714
▁ласко	-11715
▁локте	-11716
▁можже	-11717
▁молит	-11718
▁ненор	-11719
▁нечет	-11720
▁новых	-11721
▁ножна	-11722
▁носит	-11723
▁отдых	-11724
▁пером	-11725
▁посол	-11726
▁посто	-11727
▁приоб	-11728
▁приче	-11729
▁прожи	-11730
▁пропи	-11731
▁сажен	-11732
▁сняла	-11733
▁сообщ	-11734
▁сотен	-11735
▁спеши	-11736
▁тайно	-11737
▁таков	-11738
▁такти	-11739
▁тихий	-11740
▁троне	-11741
▁трупа	-11742
▁устье	-11743
▁форси	-11744
▁футов	-11745
▁центр	-11746
▁шерша	-11747
▁шкуры	-11748
арраква	-11749
дниками	-11750
кнулась	-11751
ленораз	-11752
ложение	-11753
скались	-11754
▁Весьма	-11755
▁Видать	-11756
▁Видимо	-11757
▁Видите	-11758
▁Вообще	-11759
▁Знаете	-11760
▁Знаком	-11761
▁Клармо	-11762
▁Молния	-11763
▁Настоя	-11764
▁Разбой	-11765
▁Скарра	-11766
▁Сквозь	-11767
▁Уверен	-11768
▁Фальку	-11769
▁березо	-11770
▁бледно	-11771
▁боевой	-11772
▁бывать	-11773
▁войной	-11774
▁врагов	-11775
▁всякой	-11776
▁вторую	-11777
▁выбрал	-11778
▁выводу	-11779
▁выходу	-11780
▁глотку	-11781
▁делика	-11782
▁добычу	-11783
▁долину	-11784
▁дурной	-11785
▁духоба	-11786
▁жестко	-11787
▁задыха	-11788
▁зарумя	-11789
▁засыпа	-11790
▁захлеб	-11791
▁звезду	-11792
▁какому	-11793
▁колесо	-11794
▁компли	-11795
▁кресло	-11796
▁легких	-11797
▁набере	-11798
▁наказа	-11799
▁наружу	-11800
▁настой	-11801
▁нежела	-11802
▁обрета	-11803
▁опосля	-11804
▁отошел	-11805
▁охотни	-11806
▁пальца	-11807
▁пахнет	-11808
▁перебр	-11809
▁печать	-11810
▁повесе	-11811
▁поднес	-11812
▁поедем	-11813
▁полные	-11814
▁попере	-11815
▁потреб	-11816
▁приман	-11817
▁присло	-11818
▁пропор	-11819
▁районе	-11820
▁ремнем	-11821
▁склону	-11822
▁службе	-11823
▁служит	-11824
▁смешно	-11825
▁снегом	-11826
▁сорока	-11827
▁старше	-11828
▁стране	-11829
▁сумели	-11830
▁сунула	-11831
▁считая	-11832
▁темных	-11833
▁тонкий	-11834
▁тракте	-11835
▁тянуть	-11836
▁удачно	-11837
▁узнает	-11838
▁уснуть	-11839
▁ухитри	-11840
▁шагами	-11841
▁шпиона	-11842
рованная	-11843
рованные	-11844
▁Анарьет	-11845
▁Ауберон	-11846
▁Большой	-11847
▁Глеанна	-11848
▁Голубой	-11849
▁Девушки	-11850
▁Зеррика	-11851
▁Никакой	-11852
▁Подойди	-11853
▁Порядок	-11854
▁Соддене	-11855
▁Темерию	-11856
▁Эурнэйд	-11857
▁баллада	-11858
▁бессиль	-11859
▁бордель	-11860
▁веревки	-11861
▁возника	-11862
▁возраст	-11863
▁встречу	-11864
▁всякого	-11865
▁вытаски	-11866
▁галереи	-11867
▁гобелен	-11868
▁деревни	-11869
▁держали	-11870
▁держась	-11871
▁длинная	-11872
▁длинным	-11873
▁дьяволь	-11874
▁затылок	-11875
▁здешних	-11876
▁зеркала	-11877
▁испачка	-11878
▁исчезли	-11879
▁картины	-11880
▁коннета	-11881
▁кричала	-11882
▁лежащий	-11883
▁магиков	-11884
▁матушка	-11885
▁махнула	-11886
▁награды	-11887
▁называл	-11888
▁напасть	-11889
▁наркоти	-11890
▁обычный	-11891
▁откашля	-11892
▁перекри	-11893
▁плохого	-11894
▁площадь	-11895
▁пограни	-11896
▁подойти	-11897
▁потирая	-11898
▁потянул	-11899
▁пригото	-11900
▁прижала	-11901
▁прикажу	-11902
▁произно	-11903
▁простор	-11904
▁пятками	-11905
▁разницы	-11906
▁распола	-11907
▁растеря	-11908
▁серебра	-11909
▁следить	-11910
▁случаем	-11911
▁таковой	-11912
▁тряхнул	-11913
▁ударили	-11914
▁условия	-11915
▁участие	-11916
▁хватило	-11917
▁эльфьей	-11918
вающимися	-11919
численные	-11920
▁Казалось	-11921
▁Окультих	-11922
▁Помероль	-11923
▁Ревности	-11924
▁Содденом	-11925
▁бороться	-11926
▁брызнула	-11927
▁василиск	-11928
▁вернется	-11929
▁выбирать	-11930
▁выбрался	-11931
▁высокого	-11932
▁голенища	-11933
▁девочкой	-11934
▁девчонку	-11935
▁дернулся	-11936
▁думается	-11937
▁женщиной	-11938
▁закусила	-11939
▁заслонил	-11940
▁картинки	-11941
▁коммента	-11942
▁королеве	-11943
▁материал	-11944
▁наклонив	-11945
▁наследни	-11946
▁организо	-11947
▁осеклась	-11948
▁покрытый	-11949
▁получили	-11950
▁пообещал	-11951
▁послушно	-11952
▁поставил	-11953
▁преследу	-11954
▁привыкли	-11955
▁примерно	-11956
▁пристани	-11957
▁проблему	-11958
▁простите	-11959
▁прошелся	-11960
▁расхохот	-11961
▁рванулся	-11962
▁согласен	-11963
▁согласна	-11964
▁согнулся	-11965
▁спасение	-11966
▁стражник	-11967
▁стрелами	-11968
▁тридцати	-11969
▁хлестнул	-11970
▁чародеем	-11971
▁штукатур	-11972
▁Гарштанге	-11973
▁Иуарраква	-11974
▁Насколько	-11975
▁Представь	-11976
▁Хенсельта	-11977
▁выглядела	-11978
▁выполнить	-11979
▁двинулась	-11980
▁доброжела	-11981
▁железными	-11982
▁задрожала	-11983
▁замечания	-11984
▁заставила	-11985
▁кончилось	-11986
▁мерзопако	-11987
▁одинаково	-11988
▁остальное	-11989
▁относится	-11990
▁отшельник	-11991
▁повернула	-11992
▁подобного	-11993
▁последняя	-11994
▁поступить	-11995
▁предлагаю	-11996
▁предплечь	-11997
▁презрение	-11998
▁присматри	-11999
▁продолжил	-12000
▁расположи	-12001
▁случается	-12002
▁спокойнее	-12003
▁странного	-12004
▁Бредевоорт	-12005
▁Неподалеку	-12006
▁действовал	-12007
▁забормотал	-12008
▁начинается	-12009
▁нордлингов	-12010
▁очередного	-12011
▁подозревал	-12012
▁покраснела	-12013
▁полукругом	-12014
▁попятилась	-12015
▁предстояло	-12016
▁прижавшись	-12017
▁простонала	-12018
▁скрежетнул	-12019
▁споткнулся	-12020
▁уставилась	-12021
▁чувствуешь	-12022
▁Рассказывай	-12023
▁закружилась	-12024
▁королевская	-12025
▁направляясь	-12026
▁приблизился	-12027
▁спрашиваешь	-12028
▁ухмыльнулся	-12029
▁Возвращаемся	-12030
▁Единственное	-12031
▁инстинктивно	-12032
▁перевернулся	-12033
▁поразительно	-12034
▁способностей	-12035
▁догадываешься	-12036
▁светловолосая	-12037
▁светловолосый	-12038
▁нильфгаардцами	-12039
ra	-12040
se	-12041
Да	-12042
Ко	-12043
юх	-12044
ien	-12045
thl	-12046
ами	-12047
арь	-12048
вие	-12049
зав	-12050
кия	-12051
мил	-12052
обе	-12053
рур	-12054
ряк	-12055
туи	-12056
фед	-12057
фер	-12058
фур	-12059
хая	-12060
хво	-12061
хле	-12062
чую	-12063
шат	-12064
ште	-12065
яло	-12066
▁Ад	-12067
▁Вд	-12068
▁бю	-12069
▁въ	-12070
▁сц	-12071
blei	-12072
боре	-12073
вная	-12074
вода	-12075
гера	-12076
грев	-12077
деты	-12078
дист	-12079
дица	-12080
дора	-12081
емым	-12082
ерая	-12083
жете	-12084
зают	-12085
калы	-12086
лком	-12087
ллис	-12088
льти	-12089
нтер	-12090
пают	-12091
рачи	-12092
спор	-12093
ссию	-12094
тины	-12095
тишь	-12096
удет	-12097
чьим	-12098
чьих	-12099
шена	-12100
шкам	-12101
шных	-12102
щите	-12103
▁Вас	-12104
▁Вдо	-12105
▁Гри	-12106
▁Гут	-12107
▁Дум	-12108
▁Зву	-12109
▁Лео	-12110
▁Рез	-12111
▁Тир	-12112
▁Упы	-12113
▁Фер	-12114
▁Эхо	-12115
▁Ярл	-12116
▁апп	-12117
▁бил	-12118
▁бры	-12119
▁вод	-12120
▁зра	-12121
▁ини	-12122
▁люд	-12123
▁маг	-12124
▁мая	-12125
▁мыш	-12126
▁рос	-12127
▁сда	-12128
▁сие	-12129
▁тес	-12130
▁уст	-12131
▁хам	-12132
▁эми	-12133
ванию	-12134
ванно	-12135
вляет	-12136
гаешь	-12137
гивал	-12138
грать	-12139
графи	-12140
кивал	-12141
ковая	-12142
лочки	-12143
лышко	-12144
ндере	-12145
низма	-12146
оцени	-12147
плоди	-12148
равли	-12149
раюсь	-12150
стами	-12151
стера	-12152
талки	-12153
товал	-12154
уголь	-12155
циями	-12156
числи	-12157
шаяся	-12158
щаяся	-12159
щется	-12160
юстра	-12161
▁Ithl	-12162
▁Деду	-12163
▁Дене	-12164
▁Дуду	-12165
▁Каин	-12166
▁Мети	-12167
▁Милс	-12168
▁Мэвы	-12169
▁Недо	-12170
▁Ново	-12171
▁Охот	-12172
▁Прос	-12173
▁Речи	-12174
▁Трой	-12175
▁Шаэр	-12176
▁Этай	-12177
▁алхи	-12178
▁бери	-12179
▁буря	-12180
▁вала	-12181
▁вбок	-12182
▁выпя	-12183
▁выти	-12184
▁гвар	-12185
▁герб	-12186
▁деру	-12187
▁зиму	-12188
▁злые	-12189
▁кала	-12190
▁канд	-12191
▁кики	-12192
▁кипя	-12193
▁коий	-12194
▁ложе	-12195
▁мазь	-12196
▁маку	-12197
▁мыши	-12198
▁наго	-12199
▁напу	-12200
▁напы	-12201
▁насе	-12202
▁нога	-12203
▁оглу	-12204
▁опро	-12205
▁отте	-12206
▁поез	-12207
▁пром	-12208
▁раны	-12209
▁рели	-12210
▁репу	-12211
▁рубе	-12212
▁судя	-12213
▁тама	-12214
▁тему	-12215
▁туфе	-12216
▁умир	-12217
▁цара	-12218
▁цело	-12219
▁шлеп	-12220
▁энти	-12221
bleidd	-12222
вывать	-12223
гаться	-12224
емонно	-12225
енному	-12226
жников	-12227
значно	-12228
зненно	-12229
кнулся	-12230
льника	-12231
нялись	-12232
реаэль	-12233
резать	-12234
тельны	-12235
хивает	-12236
шенное	-12237
щенную	-12238
ющееся	-12239
▁Башне	-12240
▁Брось	-12241
▁Веспу	-12242
▁Двига	-12243
▁Джинн	-12244
▁Жизнь	-12245
▁Идите	-12246
▁Калеб	-12247
▁Кафед	-12248
▁Кметы	-12249
▁Никак	-12250
▁Никля	-12251
▁Порой	-12252
▁Ремиз	-12253
▁Следы	-12254
▁Слова	-12255
▁Сомне	-12256
▁Стоки	-12257
▁Треть	-12258
▁Шелдо	-12259
▁армей	-12260
▁барда	-12261
▁беста	-12262
▁болью	-12263
▁вашем	-12264
▁вдали	-12265
▁верте	-12266
▁весну	-12267
▁виден	-12268
▁вином	-12269
▁вихрь	-12270
▁возро	-12271
▁вывод	-12272
▁выдви	-12273
▁вызов	-12274
▁выкру	-12275
▁выплы	-12276
▁вьюки	-12277
▁герои	-12278
▁гравю	-12279
▁графа	-12280
▁гроша	-12281
▁групп	-12282
▁допро	-12283
▁дочер	-12284
▁дышал	-12285
▁жадно	-12286
▁забыв	-12287
▁зачер	-12288
▁звезд	-12289
▁знаки	-12290
▁извра	-12291
▁камне	-12292
▁кожей	-12293
▁компо	-12294
▁копья	-12295
▁крест	-12296
▁кубки	-12297
▁кузне	-12298
▁латах	-12299
▁луком	-12300
▁массу	-12301
▁месть	-12302
▁могет	-12303
▁морды	-12304
▁мрака	-12305
▁мурав	-12306
▁нигде	-12307
▁новой	-12308
▁оброс	-12309
▁опеку	-12310
▁оскла	-12311
▁отдам	-12312
▁офици	-12313
▁палку	-12314
▁пасти	-12315
▁переу	-12316
▁повел	-12317
▁подве	-12318
▁подсу	-12319
▁пойма	-12320
▁полег	-12321
▁помер	-12322
▁понес	-12323
▁похло	-12324
▁приду	-12325
▁пробо	-12326
▁прока	-12327
▁промы	-12328
▁пропу	-12329
▁публи	-12330
▁разъя	-12331
▁свеже	-12332
▁сесть	-12333
▁склон	-12334
▁слава	-12335
▁сопри	-12336
▁сосны	-12337
▁сукку	-12338
▁сумер	-12339
▁тайну	-12340
▁театр	-12341
▁ткани	-12342
▁тошно	-12343
▁тряпи	-12344
▁тянет	-12345
▁улице	-12346
▁умолк	-12347
▁факто	-12348
▁хирур	-12349
▁шикар	-12350
▁экипа	-12351
▁ястре	-12352
ждается	-12353
женосец	-12354
неслись	-12355
стность	-12356
толкнул	-12357
шенного	-12358
▁Береги	-12359
▁Зелест	-12360
▁Никого	-12361
▁Пальцы	-12362
▁Рёгнер	-12363
▁Светло	-12364
▁Собира	-12365
▁Ставро	-12366
▁Стелла	-12367
▁Эльфов	-12368
▁бежала	-12369
▁богато	-12370
▁братец	-12371
▁бывало	-12372
▁важный	-12373
▁верхом	-12374
▁взамен	-12375
▁владык	-12376
▁водопа	-12377
▁волоча	-12378
▁выехал	-12379
▁горели	-12380
▁горшок	-12381
▁длиной	-12382
▁добыть	-12383
▁долгое	-12384
▁долины	-12385
▁достал	-12386
▁доходя	-12387
▁жертвы	-12388
▁забудь	-12389
▁заново	-12390
▁запута	-12391
▁затеря	-12392
▁зелено	-12393
▁землей	-12394
▁знание	-12395
▁зрения	-12396
▁изволи	-12397
▁камени	-12398
▁кинула	-12399
▁княжну	-12400
▁конвен	-12401
▁лагеря	-12402
▁лениво	-12403
▁ловчих	-12404
▁лучших	-12405
▁мензур	-12406
▁мордой	-12407
▁мутант	-12408
▁мчится	-12409
▁невели	-12410
▁неизбе	-12411
▁ножнах	-12412
▁одобря	-12413
▁опушке	-12414
▁отдель	-12415
▁охвати	-12416
▁панику	-12417
▁первом	-12418
▁переда	-12419
▁перели	-12420
▁пехоты	-12421
▁пойман	-12422
▁попону	-12423
▁правый	-12424
▁привед	-12425
▁провин	-12426
▁просви	-12427
▁просит	-12428
▁прямой	-12429
▁разбро	-12430
▁рассек	-12431
▁растет	-12432
▁светит	-12433
▁слушал	-12434
▁собаки	-12435
▁сталки	-12436
▁станем	-12437
▁старых	-12438
▁стеной	-12439
▁столби	-12440
▁столбу	-12441
▁столеш	-12442
▁темная	-12443
▁темной	-12444
▁товари	-12445
▁тракту	-12446
▁узнали	-12447
▁улыбке	-12448
▁уснула	-12449
▁ходили	-12450
▁чистой	-12451
▁эльфом	-12452
кладывай	-12453
▁Ангрене	-12454
▁Бригден	-12455
▁Денесле	-12456
▁Думаешь	-12457
▁Заклина	-12458
▁Заречье	-12459
▁Мильвой	-12460
▁Младший	-12461
▁Паветту	-12462
▁Поехали	-12463
▁Радовид	-12464
▁Скверно	-12465
▁Хорошая	-12466
▁Эррдиль	-12467
▁аналоги	-12468
▁бегство	-12469
▁внутрен	-12470
▁военной	-12471
▁возбужд	-12472
▁волнами	-12473
▁встрече	-12474
▁выбрать	-12475
▁высоком	-12476
▁громкий	-12477
▁донесся	-12478
▁дополни	-12479
▁дорогие	-12480
▁дружков	-12481
▁желудок	-12482
▁засопел	-12483
▁затылке	-12484
▁истинно	-12485
▁кармино	-12486
▁картину	-12487
▁кинжала	-12488
▁коридор	-12489
▁костров	-12490
▁красный	-12491
▁кристал	-12492
▁крупный	-12493
▁мутации	-12494
▁обычная	-12495
▁обычных	-12496
▁обязана	-12497
▁откинул	-12498
▁отложил	-12499
▁перешел	-12500
▁плотным	-12501
▁пойдешь	-12502
▁полотни	-12503
▁популяр	-12504
▁построй	-12505
▁похвали	-12506
▁придвор	-12507
▁природа	-12508
▁притвор	-12509
▁проверя	-12510
▁пытайся	-12511
▁разделя	-12512
▁разъезд	-12513
▁разыгры	-12514
▁рассуди	-12515
▁рассыпа	-12516
▁резиден	-12517
▁рубашку	-12518
▁смолчал	-12519
▁спуская	-12520
▁считали	-12521
▁считают	-12522
▁толкнул	-12523
▁требуют	-12524
▁трупами	-12525
▁убитого	-12526
▁угадать	-12527
▁челюсти	-12528
▁энергии	-12529
хваченный	-12530
церемонно	-12531
▁Ithlinne	-12532
▁Ведьмака	-12533
▁Гарштанг	-12534
▁Дальберг	-12535
▁Зиреаэль	-12536
▁Компании	-12537
▁Наездник	-12538
▁Радклифф	-12539
▁бросился	-12540
▁вернемся	-12541
▁владения	-12542
▁действие	-12543
▁доказать	-12544
▁достойно	-12545
▁желанием	-12546
▁железной	-12547
▁зарослей	-12548
▁знакомых	-12549
▁камергер	-12550
▁легонько	-12551
▁лестница	-12552
▁лестницу	-12553
▁наблюдал	-12554
▁надеялся	-12555
▁наиболее	-12556
▁наступит	-12557
▁началась	-12558
▁общество	-12559
▁овладеть	-12560
▁паромщик	-12561
▁поверишь	-12562
▁повесить	-12563
▁подбород	-12564
▁подобных	-12565
▁показала	-12566
▁покрытых	-12567
▁политике	-12568
▁посвисты	-12569
▁поступил	-12570
▁праздник	-12571
▁предлага	-12572
▁представ	-12573
▁приговор	-12574
▁признаки	-12575
▁провести	-12576
▁пропасть	-12577
▁прошлого	-12578
▁ругаться	-12579
▁сделаешь	-12580
▁способна	-12581
▁спрыгнул	-12582
▁стоявший	-12583
▁тихонько	-12584
▁убийства	-12585
▁угрожать	-12586
▁ударился	-12587
▁фантасти	-12588
▁чернокни	-12589
▁Коегоорна	-12590
▁Предлагаю	-12591
▁Презрения	-12592
▁Элландере	-12593
▁аудиенции	-12594
▁выглядели	-12595
▁выдержала	-12596
▁дернулась	-12597
▁досталось	-12598
▁заставило	-12599
▁изумления	-12600
▁императри	-12601
▁исключено	-12602
▁испытания	-12603
▁наблюдать	-12604
▁наемников	-12605
▁необходим	-12606
▁отхлебнул	-12607
▁переправи	-12608
▁повторить	-12609
▁поудобнее	-12610
▁пошевелил	-12611
▁проснулся	-12612
▁прохрипел	-12613
▁процедила	-12614
▁сверкнули	-12615
▁сверкнуло	-12616
▁серьезное	-12617
▁скривился	-12618
▁собрались	-12619
▁сохранить	-12620
▁сравнению	-12621
▁таможенни	-12622
▁телепорти	-12623
▁удивилась	-12624
▁улыбаться	-12625
▁частенько	-12626
▁Gwynbleidd	-12627
▁Венгерберг	-12628
▁Незнакомец	-12629
▁Ошибаешься	-12630
▁Получается	-12631
▁Эквинокция	-12632
▁бесконечно	-12633
▁бессмыслен	-12634
▁величайшим	-12635
▁заработать	-12636
▁засмеялась	-12637
▁магическим	-12638
▁маленькими	-12639
▁нахмурился	-12640
▁обеспечить	-12641
▁обращаться	-12642
▁оглянулась	-12643
▁оставалось	-12644
▁отправился	-12645
▁поглаживая	-12646
▁поднимаясь	-12647
▁пользуется	-12648
▁посмотреть	-12649
▁предполага	-12650
▁прикончили	-12651
▁серебряным	-12652
▁сконцентри	-12653
▁скрывается	-12654
▁существуют	-12655
▁украшенном	-12656
▁установить	-12657
▁Венгерберге	-12658
▁безжалостно	-12659
▁вооруженные	-12660
▁встречается	-12661
▁зависимости	-12662
▁задумываясь	-12663
▁оправдывает	-12664
▁присутствии	-12665
▁пророчества	-12666
▁внимательнее	-12667
▁королевского	-12668
▁существовать	-12669
▁черноволосая	-12670
▁несправедливо	-12671
▁поворачиваясь	-12672
▁предназначена	-12673
▁странствующий	-12674
▁существование	-12675
▁демонстративно	-12676
▁многочисленные	-12677
▁нильфгаардским	-12678
▁приближающихся	-12679
me	-12680
За	-12681
ас	-12682
ис	-12683
▁Y	-12684
▁n	-12685
ned	-12686
und	-12687
бей	-12688
бке	-12689
вню	-12690
вью	-12691
гаю	-12692
даю	-12693
дэн	-12694
ева	-12695
жик	-12696
жью	-12697
зах	-12698
лии	-12699
нне	-12700
нты	-12701
пей	-12702
тта	-12703
хим	-12704
чах	-12705
чин	-12706
шам	-12707
шив	-12708
▁11	-12709
▁ar	-12710
▁va	-12711
▁Зы	-12712
▁Сы	-12713
▁Ум	-12714
▁ат	-12715
▁пю	-12716
uned	-12717
Адью	-12718
било	-12719
бина	-12720
гфор	-12721
дало	-12722
дида	-12723
дней	-12724
енси	-12725
енья	-12726
ерде	-12727
ждан	-12728
жими	-12729
изар	-12730
казу	-12731
коль	-12732
мелл	-12733
нать	-12734
нели	-12735
нена	-12736
няки	-12737
пеля	-12738
рина	-12739
роти	-12740
рями	-12741
сных	-12742
стах	-12743
твор	-12744
тием	-12745
туру	-12746
хала	-12747
шешь	-12748
щена	-12749
щины	-12750
▁Ess	-12751
▁Hen	-12752
▁Ich	-12753
▁Вст	-12754
▁Дан	-12755
▁Дви	-12756
▁Дет	-12757
▁Дуб	-12758
▁Изу	-12759
▁Кол	-12760
▁Нач	-12761
▁Оби	-12762
▁Пти	-12763
▁Уро	-12764
▁Хмм	-12765
▁Чув	-12766
▁Яль	-12767
▁гад	-12768
▁дну	-12769
▁дыр	-12770
▁мут	-12771
▁осы	-12772
▁пух	-12773
▁уду	-12774
▁чьи	-12775
▁шея	-12776
▁щеб	-12777
▁юга	-12778
▁юри	-12779
берем	-12780
важно	-12781
веена	-12782
вными	-12783
днике	-12784
емыми	-12785
жаясь	-12786
ждают	-12787
леная	-12788
лками	-12789
ловой	-12790
нутая	-12791
нутым	-12792
нялся	-12793
памят	-12794
полно	-12795
скорт	-12796
стать	-12797
стное	-12798
страя	-12799
хидни	-12800
циден	-12801
▁Вель	-12802
▁Зара	-12803
▁Исче	-12804
▁Ложа	-12805
▁Неиз	-12806
▁Низу	-12807
▁Питт	-12808
▁Порт	-12809
▁Прис	-12810
▁Река	-12811
▁Слад	-12812
▁Стал	-12813
▁Стру	-12814
▁Тыся	-12815
▁Узна	-12816
▁Филь	-12817
▁Хрен	-12818
▁архи	-12819
▁бано	-12820
▁боку	-12821
▁верь	-12822
▁взмы	-12823
▁вины	-12824
▁груз	-12825
▁гуль	-12826
▁доби	-12827
▁дому	-12828
▁духа	-12829
▁зади	-12830
▁избы	-12831
▁имея	-12832
▁иное	-12833
▁кури	-12834
▁куче	-12835
▁лаке	-12836
▁лапу	-12837
▁лека	-12838
▁лесо	-12839
▁лист	-12840
▁луны	-12841
▁малю	-12842
▁мили	-12843
▁моты	-12844
▁неис	-12845
▁неко	-12846
▁овец	-12847
▁отко	-12848
▁отку	-12849
▁оцен	-12850
▁пани	-12851
▁пень	-12852
▁петь	-12853
▁план	-12854
▁поби	-12855
▁поде	-12856
▁прив	-12857
▁прию	-12858
▁рада	-12859
▁рано	-12860
▁рети	-12861
▁родо	-12862
▁руны	-12863
▁своя	-12864
▁село	-12865
▁серд	-12866
▁серь	-12867
▁сеть	-12868
▁стон	-12869
▁типа	-12870
▁ухом	-12871
▁хихи	-12872
▁холм	-12873
▁чужа	-12874
алитет	-12875
венкар	-12876
вничал	-12877
глазая	-12878
грохот	-12879
дались	-12880
делали	-12881
довало	-12882
еньках	-12883
ждений	-12884
кедова	-12885
ковыми	-12886
мотрят	-12887
нутого	-12888
пились	-12889
помина	-12890
риться	-12891
рующий	-12892
скочив	-12893
станно	-12894
стного	-12895
ступая	-12896
центра	-12897
чаются	-12898
чевать	-12899
▁Ближе	-12900
▁Будем	-12901
▁Давно	-12902
▁Двери	-12903
▁Дверь	-12904
▁Дождь	-12905
▁Долин	-12906
▁Здоро	-12907
▁Злату	-12908
▁Зывик	-12909
▁Искус	-12910
▁Йенна	-12911
▁Мунро	-12912
▁Повер	-12913
▁Подни	-12914
▁Поспе	-12915
▁Профе	-12916
▁Равно	-12917
▁Рогге	-12918
▁Силой	-12919
▁Скажу	-12920
▁Собра	-12921
▁Токмо	-12922
▁Утром	-12923
▁Фьера	-12924
▁Черно	-12925
▁Эрлен	-12926
▁бабки	-12927
▁башку	-12928
▁безбо	-12929
▁берез	-12930
▁ведут	-12931
▁весны	-12932
▁ветру	-12933
▁волно	-12934
▁враги	-12935
▁выпил	-12936
▁герцо	-12937
▁гизар	-12938
▁горит	-12939
▁граби	-12940
▁грани	-12941
▁девчу	-12942
▁духов	-12943
▁забор	-12944
▁запры	-12945
▁зимой	-12946
▁зубча	-12947
▁избра	-12948
▁издал	-12949
▁искря	-12950
▁кисть	-12951
▁корни	-12952
▁косой	-12953
▁кошки	-12954
▁любую	-12955
▁маски	-12956
▁менги	-12957
▁месту	-12958
▁мисти	-12959
▁мужик	-12960
▁налог	-12961
▁насти	-12962
▁носят	-12963
▁обожа	-12964
▁общей	-12965
▁одних	-12966
▁особа	-12967
▁отвле	-12968
▁отчет	-12969
▁ощути	-12970
▁подку	-12971
▁позвя	-12972
▁полет	-12973
▁полон	-12974
▁прику	-12975
▁приль	-12976
▁прути	-12977
▁пуска	-12978
▁пятки	-12979
▁пятно	-12980
▁разош	-12981
▁расту	-12982
▁ревом	-12983
▁русал	-12984
▁силуэ	-12985
▁симво	-12986
▁скопи	-12987
▁смета	-12988
▁собак	-12989
▁солне	-12990
▁спала	-12991
▁спаса	-12992
▁сынок	-12993
▁тепла	-12994
▁товар	-12995
▁трясу	-12996
▁убийц	-12997
▁увеша	-12998
▁удали	-12999
▁хитро	-13000
▁черни	-13001
▁черти	-13002
▁чужие	-13003
▁явным	-13004
вленные	-13005
дования	-13006
дравляю	-13007
кидывая	-13008
лениями	-13009
ментами	-13010
щенного	-13011
щенными	-13012
ющимися	-13013
▁Баррин	-13014
▁Будешь	-13015
▁Вызиму	-13016
▁Дорога	-13017
▁Дьявол	-13018
▁Иногда	-13019
▁Испыта	-13020
▁Клинок	-13021
▁Мырман	-13022
▁Позади	-13023
▁Покажи	-13024
▁Ройвен	-13025
▁Совета	-13026
▁Стигга	-13027
▁Стоять	-13028
▁Цветов	-13029
▁Чудище	-13030
▁Шелдон	-13031
▁артери	-13032
▁баллад	-13033
▁банкир	-13034
▁бестия	-13035
▁бледне	-13036
▁боевые	-13037
▁боятся	-13038
▁ветвей	-13039
▁внутрь	-13040
▁втихую	-13041
▁высмор	-13042
▁городи	-13043
▁границ	-13044
▁грудью	-13045
▁группе	-13046
▁дворян	-13047
▁долгая	-13048
▁дракка	-13049
▁желаем	-13050
▁живого	-13051
▁задрав	-13052
▁заскре	-13053
▁застря	-13054
▁затряс	-13055
▁защиту	-13056
▁здания	-13057
▁злости	-13058
▁знания	-13059
▁каждую	-13060
▁камням	-13061
▁кверху	-13062
▁коллек	-13063
▁компле	-13064
▁кретин	-13065
▁легкие	-13066
▁лежало	-13067
▁лежать	-13068
▁ловким	-13069
▁локтей	-13070
▁лучшей	-13071
▁мелкие	-13072
▁мерина	-13073
▁мнится	-13074
▁мокрый	-13075
▁молний	-13076
▁мягкое	-13077
▁наиско	-13078
▁напуга	-13079
▁наслед	-13080
▁нашему	-13081
▁небось	-13082
▁немалы	-13083
▁нетопы	-13084
▁неуклю	-13085
▁ноздри	-13086
▁обезья	-13087
▁обидел	-13088
▁облака	-13089
▁ольхов	-13090
▁опуска	-13091
▁острым	-13092
▁отвела	-13093
▁отшель	-13094
▁пазухи	-13095
▁парней	-13096
▁песком	-13097
▁пещера	-13098
▁планах	-13099
▁поворо	-13100
▁подвал	-13101
▁позабо	-13102
▁пониже	-13103
▁принца	-13104
▁прогло	-13105
▁радует	-13106
▁развил	-13107
▁рубаху	-13108
▁севере	-13109
▁силами	-13110
▁слезая	-13111
▁случая	-13112
▁солтыс	-13113
▁спятил	-13114
▁срочно	-13115
▁стволы	-13116
▁стоило	-13117
▁стояло	-13118
▁стрель	-13119
▁сукины	-13120
▁тожить	-13121
▁трансе	-13122
▁украша	-13123
▁улыбки	-13124
▁упасть	-13125
▁ущелья	-13126
▁целясь	-13127
▁эконом	-13128
▁явился	-13129
ставлять	-13130
▁Аэдирне	-13131
▁Вензлав	-13132
▁Вспомни	-13133
▁Выходит	-13134
▁Десятка	-13135
▁Кантаре	-13136
▁Конгрев	-13137
▁Конники	-13138
▁Львенка	-13139
▁Мольнар	-13140
▁Полагаю	-13141
▁Понятно	-13142
▁Приказы	-13143
▁Сожалею	-13144
▁Страшно	-13145
▁Темерия	-13146
▁Упырица	-13147
▁Хенгфор	-13148
▁Шаэррав	-13149
▁адептка	-13150
▁аккурат	-13151
▁безобра	-13152
▁болезни	-13153
▁братьев	-13154
▁бродяга	-13155
▁взялись	-13156
▁воевать	-13157
▁вороная	-13158
▁всеобще	-13159
▁всхлипы	-13160
▁вызвали	-13161
▁вырвать	-13162
▁вытерла	-13163
▁выходит	-13164
▁горящие	-13165
▁господи	-13166
▁гребень	-13167
▁группой	-13168
▁грязные	-13169
▁десятка	-13170
▁детства	-13171
▁длинной	-13172
▁длинную	-13173
▁доверие	-13174
▁договор	-13175
▁должник	-13176
▁дрожать	-13177
▁единого	-13178
▁заверте	-13179
▁замерла	-13180
▁занятия	-13181
▁заполня	-13182
▁затянул	-13183
▁здорова	-13184
▁зеленым	-13185
▁золотые	-13186
▁золотых	-13187
▁изуродо	-13188
▁каштано	-13189
▁клинков	-13190
▁контору	-13191
▁красное	-13192
▁красоты	-13193
▁малолет	-13194
▁морских	-13195
▁наверно	-13196
▁награда	-13197
▁недовер	-13198
▁непонят	-13199
▁обязаны	-13200
▁ожидали	-13201
▁оставлю	-13202
▁острием	-13203
▁перебро	-13204
▁поближе	-13205
▁подозри	-13206
▁правого	-13207
▁предали	-13208
▁прибыла	-13209
▁прыжком	-13210
▁пустыне	-13211
▁разлете	-13212
▁расцвет	-13213
▁светлые	-13214
▁следова	-13215
▁создать	-13216
▁солнцем	-13217
▁состяза	-13218
▁спрятал	-13219
▁старший	-13220
▁стволов	-13221
▁судьбой	-13222
▁суждено	-13223
▁теорети	-13224
▁террасы	-13225
▁толстый	-13226
▁трактир	-13227
▁убивает	-13228
▁умирать	-13229
▁хватало	-13230
▁хоругви	-13231
▁энергию	-13232
▁яблочко	-13233
ворачивая	-13234
тельством	-13235
▁Ангулемы	-13236
▁Допустим	-13237
▁Махакама	-13238
▁Назариан	-13239
▁Полуэльф	-13240
▁Раинфарн	-13241
▁Фьерабра	-13242
▁Цириллой	-13243
▁Эстерада	-13244
▁балюстра	-13245
▁блестели	-13246
▁временно	-13247
▁вцепился	-13248
▁вылетели	-13249
▁выплюнул	-13250
▁вытащить	-13251
▁голополь	-13252
▁двигаясь	-13253
▁движений	-13254
▁дождался	-13255
▁драконом	-13256
▁дрогнуло	-13257
▁животных	-13258
▁зарослях	-13259
▁захрипел	-13260
▁звездами	-13261
▁кладбище	-13262
▁кончился	-13263
▁красивый	-13264
▁мальчика	-13265
▁миновали	-13266
▁мужчиной	-13267
▁наглость	-13268
▁недоволь	-13269
▁отметила	-13270
▁отчаяния	-13271
▁паренька	-13272
▁погибель	-13273
▁пожертво	-13274
▁политика	-13275
▁поменьше	-13276
▁помогает	-13277
▁помогать	-13278
▁потреска	-13279
▁прервать	-13280
▁принимаю	-13281
▁причинам	-13282
▁проделал	-13283
▁профессо	-13284
▁разбрасы	-13285
▁размером	-13286
▁рубанула	-13287
▁свидания	-13288
▁свистнул	-13289
▁смотришь	-13290
▁стратеги	-13291
▁человеку	-13292
Неожиданно	-13293
лаговолите	-13294
ментировал	-13295
▁Правильно	-13296
▁Фрингилью	-13297
▁Элландера	-13298
▁Эрленваль	-13299
▁внутренни	-13300
▁вспомнить	-13301
▁всяческих	-13302
▁выдержать	-13303
▁вызывающе	-13304
▁вынуждены	-13305
▁выслушать	-13306
▁господину	-13307
▁действуют	-13308
▁изумленно	-13309
▁именовать	-13310
▁искусство	-13311
▁маленькую	-13312
▁медленнее	-13313
▁названием	-13314
▁настоящая	-13315
▁настоящее	-13316
▁незнакомы	-13317
▁нисколько	-13318
▁новолуния	-13319
▁обнаружил	-13320
▁обсидиано	-13321
▁остальным	-13322
▁отпустила	-13323
▁отскочила	-13324
▁пожелаешь	-13325
▁покончить	-13326
▁постольку	-13327
▁принцессы	-13328
▁приподнял	-13329
▁профессия	-13330
▁считаться	-13331
▁уважаемые	-13332
▁частности	-13333
▁Волшебница	-13334
▁Роггевеена	-13335
▁Сомневаюсь	-13336
▁Трактирщик	-13337
▁волшебница	-13338
▁выражением	-13339
▁гигантский	-13340
▁маленького	-13341
▁милостивая	-13342
▁неизвестно	-13343
▁однозначно	-13344
▁охватывает	-13345
▁поблизости	-13346
▁полнолуние	-13347
▁послышался	-13348
▁посмотрела	-13349
▁превратить	-13350
▁произойдет	-13351
▁распознать	-13352
▁расстегнул	-13353
▁результаты	-13354
▁светловоло	-13355
▁серебряные	-13356
▁слушателей	-13357
▁собирались	-13358
▁содержание	-13359
▁сообразила	-13360
▁благородная	-13361
▁вооруженный	-13362
▁достоинства	-13363
▁использовал	-13364
▁переговоров	-13365
▁пользовался	-13366
▁присутствие	-13367
▁пророчество	-13368
▁рассмотреть	-13369
▁сиятельство	-13370
▁чрезвычайно	-13371
▁единственное	-13372
▁пошевелилась	-13373
▁произведения	-13374
▁распоряжения	-13375
▁рассказывать	-13376
▁человеческие	-13377
▁подразделения	-13378
Ле	-13379
▁l	-13380
ara	-13381
her	-13382
вье	-13383
гиб	-13384
гне	-13385
дны	-13386
дцы	-13387
етт	-13388
жия	-13389
жья	-13390
зит	-13391
зию	-13392
зре	-13393
ксу	-13394
мше	-13395
оти	-13396
пож	-13397
пью	-13398
сос	-13399
сох	-13400
тав	-13401
таю	-13402
упо	-13403
фыр	-13404
чна	-13405
шню	-13406
▁Жу	-13407
▁зв	-13408
▁пь	-13409
▁сю	-13410
▁юр	-13411
▁яи	-13412
aill	-13413
бать	-13414
бежа	-13415
бкой	-13416
вана	-13417
вера	-13418
вета	-13419
веши	-13420
вком	-13421
влял	-13422
гиня	-13423
дрон	-13424
дыря	-13425
еным	-13426
знал	-13427
кета	-13428
кине	-13429
кции	-13430
лере	-13431
лило	-13432
милу	-13433
моро	-13434
полу	-13435
рясь	-13436
сень	-13437
сную	-13438
ссар	-13439
таны	-13440
теть	-13441
тизи	-13442
торы	-13443
уден	-13444
фаль	-13445
цара	-13446
чике	-13447
чись	-13448
чище	-13449
шаль	-13450
шной	-13451
▁Бой	-13452
▁Взя	-13453
▁Гин	-13454
▁Гне	-13455
▁Дву	-13456
▁Кер	-13457
▁Ниж	-13458
▁Нор	-13459
▁Пру	-13460
▁Тех	-13461
▁Тря	-13462
▁Фиг	-13463
▁Хей	-13464
▁Шли	-13465
▁ажу	-13466
▁впо	-13467
▁дыл	-13468
▁жди	-13469
▁зри	-13470
▁ищу	-13471
▁оту	-13472
▁плу	-13473
▁руи	-13474
▁суе	-13475
▁хмм	-13476
▁хмы	-13477
▁чих	-13478
▁эпи	-13479
берет	-13480
бочка	-13481
вется	-13482
вками	-13483
время	-13484
вшему	-13485
даешь	-13486
дегар	-13487
демон	-13488
жился	-13489
замен	-13490
зация	-13491
йдешь	-13492
казки	-13493
ленка	-13494
лется	-13495
лиант	-13496
ливым	-13497
мости	-13498
никак	-13499
няком	-13500
пплер	-13501
приим	-13502
ретья	-13503
рится	-13504
ровав	-13505
тания	-13506
тятся	-13507
уваар	-13508
ховой	-13509
ходом	-13510
чьего	-13511
щаясь	-13512
эдвен	-13513
эльфь	-13514
ялась	-13515
▁Бард	-13516
▁Берт	-13517
▁Видя	-13518
▁Вряд	-13519
▁Драк	-13520
▁Дуэн	-13521
▁Идет	-13522
▁Итли	-13523
▁Йуле	-13524
▁Канэ	-13525
▁Мама	-13526
▁Мень	-13527
▁Семь	-13528
▁Стол	-13529
▁Тисс	-13530
▁Тьма	-13531
▁Умер	-13532
▁Хммм	-13533
▁ауру	-13534
▁беру	-13535
▁брас	-13536
▁брит	-13537
▁бьет	-13538
▁бьют	-13539
▁валу	-13540
▁взбу	-13541
▁взду	-13542
▁взят	-13543
▁войн	-13544
▁волк	-13545
▁вона	-13546
▁выса	-13547
▁гвоз	-13548
▁гиль	-13549
▁гнев	-13550
▁гули	-13551
▁диво	-13552
▁долг	-13553
▁дурь	-13554
▁дымы	-13555
▁зана	-13556
▁затк	-13557
▁затя	-13558
▁злая	-13559
▁змеи	-13560
▁иглы	-13561
▁иным	-13562
▁крае	-13563
▁лиши	-13564
▁луже	-13565
▁льня	-13566
▁мхом	-13567
▁мыла	-13568
▁нави	-13569
▁наск	-13570
▁нену	-13571
▁нера	-13572
▁ножи	-13573
▁обло	-13574
▁овра	-13575
▁одер	-13576
▁окну	-13577
▁онем	-13578
▁отме	-13579
▁прет	-13580
▁ртом	-13581
▁руби	-13582
▁сине	-13583
▁смяг	-13584
▁спец	-13585
▁тала	-13586
▁токо	-13587
▁тоск	-13588
▁тьмы	-13589
▁ублю	-13590
▁упро	-13591
▁факе	-13592
▁финт	-13593
▁цени	-13594
▁чьей	-13595
▁шоро	-13596
бирать	-13597
вавшие	-13598
ваемся	-13599
гнутые	-13600
данных	-13601
делась	-13602
дитесь	-13603
дишься	-13604
кивали	-13605
коснов	-13606
летело	-13607
лились	-13608
ловину	-13609
лучить	-13610
нейшие	-13611
новато	-13612
рована	-13613
рующей	-13614
рующим	-13615
танных	-13616
тилось	-13617
ходите	-13618
шеньки	-13619
щенным	-13620
▁Белой	-13621
▁Боюсь	-13622
▁Варга	-13623
▁Вимме	-13624
▁Выпол	-13625
▁Горго	-13626
▁Дайте	-13627
▁Молча	-13628
▁Паром	-13629
▁Подго	-13630
▁Помол	-13631
▁Реган	-13632
▁Рыжий	-13633
▁Счита	-13634
▁Таких	-13635
▁Хаоса	-13636
▁Хрому	-13637
▁Четыр	-13638
▁Швель	-13639
▁Эверт	-13640
▁актив	-13641
▁атаку	-13642
▁бездо	-13643
▁безот	-13644
▁безум	-13645
▁белая	-13646
▁бельт	-13647
▁берут	-13648
▁блага	-13649
▁борта	-13650
▁велик	-13651
▁весна	-13652
▁веток	-13653
▁видим	-13654
▁внеза	-13655
▁вскры	-13656
▁главе	-13657
▁глазу	-13658
▁двори	-13659
▁дипло	-13660
▁жарго	-13661
▁замуж	-13662
▁занер	-13663
▁засви	-13664
▁звеня	-13665
▁зелен	-13666
▁изгна	-13667
▁иного	-13668
▁интри	-13669
▁канал	-13670
▁капри	-13671
▁карту	-13672
▁касте	-13673
▁книгу	-13674
▁ковер	-13675
▁колба	-13676
▁крышу	-13677
▁купил	-13678
▁кучей	-13679
▁лавке	-13680
▁лесов	-13681
▁линию	-13682
▁луков	-13683
▁макия	-13684
▁масло	-13685
▁матро	-13686
▁мурлы	-13687
▁муску	-13688
▁мутан	-13689
▁насла	-13690
▁начин	-13691
▁некий	-13692
▁новое	-13693
▁ножны	-13694
▁обели	-13695
▁одета	-13696
▁озеру	-13697
▁освет	-13698
▁отнял	-13699
▁отста	-13700
▁охоте	-13701
▁охоту	-13702
▁пирше	-13703
▁плату	-13704
▁плеск	-13705
▁побол	-13706
▁погас	-13707
▁позна	-13708
▁покро	-13709
▁понят	-13710
▁порос	-13711
▁поруч	-13712
▁посме	-13713
▁посты	-13714
▁препо	-13715
▁прого	-13716
▁разря	-13717
▁расти	-13718
▁ремни	-13719
▁роман	-13720
▁ручей	-13721
▁ручку	-13722
▁ручья	-13723
▁самим	-13724
▁свечи	-13725
▁сенса	-13726
▁смеха	-13727
▁сомни	-13728
▁сопер	-13729
▁сосен	-13730
▁стека	-13731
▁субъе	-13732
▁темпе	-13733
▁траги	-13734
▁траур	-13735
▁уйдет	-13736
▁уцеле	-13737
▁учиты	-13738
▁флами	-13739
▁шанта	-13740
▁шапке	-13741
▁шапки	-13742
▁школа	-13743
жденных	-13744
зеленые	-13745
махнула	-13746
новидно	-13747
роятнее	-13748
скрипел	-13749
стельга	-13750
тягивая	-13751
▁Ichaer	-13752
▁Будьте	-13753
▁Верхов	-13754
▁Внутри	-13755
▁Воздух	-13756
▁Встань	-13757
▁Голопо	-13758
▁Импери	-13759
▁Каррай	-13760
▁Кистри	-13761
▁Короли	-13762
▁Локсию	-13763
▁Небось	-13764
▁Ответь	-13765
▁Очеред	-13766
▁Парень	-13767
▁Приказ	-13768
▁Раньше	-13769
▁Трудно	-13770
▁Эрвилл	-13771
▁Яльмар	-13772
▁аплоди	-13773
▁бегали	-13774
▁бедрах	-13775
▁беседе	-13776
▁блажен	-13777
▁важная	-13778
▁внучка	-13779
▁возьму	-13780
▁вороны	-13781
▁встали	-13782
▁голубо	-13783
▁городу	-13784
▁горожа	-13785
▁горько	-13786
▁данном	-13787
▁добрых	-13788
▁добычи	-13789
▁долина	-13790
▁завали	-13791
▁злость	-13792
▁знаний	-13793
▁инициа	-13794
▁испога	-13795
▁кивком	-13796
▁кодекс	-13797
▁козлах	-13798
▁конный	-13799
▁крышку	-13800
▁лапами	-13801
▁легкий	-13802
▁лесной	-13803
▁ловить	-13804
▁лучшее	-13805
▁маслом	-13806
▁могилы	-13807
▁молоде	-13808
▁моното	-13809
▁мостом	-13810
▁мстить	-13811
▁мягким	-13812
▁найдем	-13813
▁народа	-13814
▁настаи	-13815
▁негодя	-13816
▁носила	-13817
▁ночлег	-13818
▁обрадо	-13819
▁объеди	-13820
▁отвали	-13821
▁отворя	-13822
▁отстра	-13823
▁падает	-13824
▁переки	-13825
▁перере	-13826
▁подбро	-13827
▁подним	-13828
▁поймал	-13829
▁поймет	-13830
▁полное	-13831
▁помило	-13832
▁помогу	-13833
▁поступ	-13834
▁привел	-13835
▁припер	-13836
▁приспо	-13837
▁причин	-13838
▁просве	-13839
▁просту	-13840
▁просты	-13841
▁прядку	-13842
▁развле	-13843
▁разгла	-13844
▁раздол	-13845
▁раскол	-13846
▁распря	-13847
▁ресниц	-13848
▁рубить	-13849
▁сарказ	-13850
▁свинцо	-13851
▁скинул	-13852
▁скипет	-13853
▁скорлу	-13854
▁скрыть	-13855
▁смеешь	-13856
▁совеща	-13857
▁соломи	-13858
▁старая	-13859
▁стекло	-13860
▁стоишь	-13861
▁стыдно	-13862
▁такова	-13863
▁тетивы	-13864
▁трижды	-13865
▁тщетно	-13866
▁убийцы	-13867
▁уголья	-13868
▁улавли	-13869
▁химеры	-13870
▁холмов	-13871
▁честью	-13872
▁эльфьи	-13873
ераздира	-13874
казывать	-13875
нувшийся	-13876
пожертво	-13877
ствующим	-13878
хватывая	-13879
▁Барринг	-13880
▁Встрети	-13881
▁Говорил	-13882
▁Господа	-13883
▁Допплер	-13884
▁Другого	-13885
▁Золтана	-13886
▁Леуваар	-13887
▁Мальчик	-13888
▁Молодая	-13889
▁Наклони	-13890
▁Настрог	-13891
▁Отвечай	-13892
▁Раненый	-13893
▁Сабрины	-13894
▁Филиппе	-13895
▁агресси	-13896
▁бандиты	-13897
▁бегства	-13898
▁бледная	-13899
▁бледнея	-13900
▁болотах	-13901
▁большак	-13902
▁бросить	-13903
▁ведущей	-13904
▁великий	-13905
▁ветками	-13906
▁взялась	-13907
▁виноват	-13908
▁включая	-13909
▁возьмет	-13910
▁волнует	-13911
▁волосам	-13912
▁волосах	-13913
▁волчьей	-13914
▁всерьез	-13915
▁выручку	-13916
▁гнедого	-13917
▁голодра	-13918
▁горного	-13919
▁городом	-13920
▁граница	-13921
▁демонов	-13922
▁жалости	-13923
▁желаешь	-13924
▁заднице	-13925
▁захотел	-13926
▁звездой	-13927
▁инциден	-13928
▁казался	-13929
▁каэдвен	-13930
▁колонну	-13931
▁конники	-13932
▁конницы	-13933
▁краской	-13934
▁красной	-13935
▁крестья	-13936
▁кровото	-13937
▁кусочки	-13938
▁легенду	-13939
▁ловушку	-13940
▁лучшего	-13941
▁людишки	-13942
▁мантихо	-13943
▁матерью	-13944
▁мужской	-13945
▁надпись	-13946
▁начался	-13947
▁обморок	-13948
▁огоньки	-13949
▁отвечал	-13950
▁откинув	-13951
▁открыть	-13952
▁отличие	-13953
▁отрезал	-13954
▁отрывая	-13955
▁офицера	-13956
▁перекре	-13957
▁перенес	-13958
▁пилигри	-13959
▁плеском	-13960
▁площади	-13961
▁повсюду	-13962
▁подвала	-13963
▁подстре	-13964
▁поймешь	-13965
▁покрови	-13966
▁помнить	-13967
▁послала	-13968
▁предмет	-13969
▁приехал	-13970
▁приняли	-13971
▁разрази	-13972
▁рекомен	-13973
▁руковод	-13974
▁секунды	-13975
▁случаях	-13976
▁смотрят	-13977
▁снаружи	-13978
▁стекала	-13979
▁сумеешь	-13980
▁террасу	-13981
▁тяжелой	-13982
▁тяжелым	-13983
▁увидите	-13984
▁умирали	-13985
▁упустил	-13986
▁успехом	-13987
▁фигурки	-13988
▁хлопнул	-13989
▁холодом	-13990
▁частоко	-13991
▁шуточки	-13992
демонстри	-13993
следствии	-13994
▁deireadh	-13995
▁Вернемся	-13996
▁Милсдарь	-13997
▁Оксенфур	-13998
▁Подумать	-13999
▁Хофмайер	-14000
▁арбалета	-14001
▁бакалавр	-14002
▁будущего	-14003
▁верности	-14004
▁верность	-14005
▁взглядов	-14006
▁вспомина	-14007
▁выскочил	-14008
▁выставил	-14009
▁вытянула	-14010
▁девушкой	-14011
▁дрожащим	-14012
▁заплатит	-14013
▁зеркалом	-14014
▁истинная	-14015
▁казались	-14016
▁княгиней	-14017
▁командой	-14018
▁кордегар	-14019
▁краткого	-14020
▁курточке	-14021
▁мандраго	-14022
▁нагайкой	-14023
▁наискось	-14024
▁нахально	-14025
▁начинать	-14026
▁недовери	-14027
▁неохотно	-14028
▁непосред	-14029
▁обещания	-14030
▁опасаясь	-14031
▁оперлась	-14032
▁опираясь	-14033
▁осуществ	-14034
▁отпуская	-14035
▁ощерился	-14036
▁пересека	-14037
▁погладил	-14038
▁поглядел	-14039
▁помешает	-14040
▁поскольз	-14041
▁послушай	-14042
▁посторон	-14043
▁придумал	-14044
▁прикрыть	-14045
▁причиной	-14046
▁пытаются	-14047
▁разведку	-14048
▁разгляды	-14049
▁расскажу	-14050
▁растения	-14051
▁растрепа	-14052
▁ритмично	-14053
▁скрывать	-14054
▁скрылись	-14055
▁сомнений	-14056
▁сообщить	-14057
▁сторонам	-14058
▁страшная	-14059
▁тысячами	-14060
▁успокоил	-14061
▁хлюпнула	-14062
▁чародеям	-14063
▁шипением	-14064
▁Позвольте	-14065
▁Фьерабрас	-14066
▁вернешься	-14067
▁взорвался	-14068
▁выглядело	-14069
▁выглядеть	-14070
▁горизонте	-14071
▁двигались	-14072
▁добрались	-14073
▁запомнить	-14074
▁именуемый	-14075
▁искусства	-14076
▁испуганно	-14077
▁колебания	-14078
▁маленькое	-14079
▁множества	-14080
▁нападение	-14081
▁напоминал	-14082
▁настоящей	-14083
▁насупился	-14084
▁научилась	-14085
▁недооцени	-14086
▁непристой	-14087
▁опасаться	-14088
▁островитя	-14089
▁отсечение	-14090
▁поведение	-14091
▁позвольте	-14092
▁позволяла	-14093
▁помещение	-14094
▁поставила	-14095
▁поставить	-14096
▁прикончил	-14097
▁процентов	-14098
▁развалины	-14099
▁ресницами	-14100
▁сглотнула	-14101
▁скрипнула	-14102
▁случалось	-14103
▁состояние	-14104
▁трактирщи	-14105
▁удивления	-14106
▁указывает	-14107
▁управлять	-14108
▁усмехаясь	-14109
мотрительно	-14110
▁Поздравляю	-14111
▁внешностью	-14112
▁возможного	-14113
▁замахнулся	-14114
▁императору	-14115
▁касательно	-14116
▁кондотьеры	-14117
▁недостатка	-14118
▁неразговор	-14119
▁обнаружить	-14120
▁окружающих	-14121
▁освободить	-14122
▁отвращение	-14123
▁парировать	-14124
▁пергамента	-14125
▁перестанет	-14126
▁подскочила	-14127
▁поклясться	-14128
▁попытаться	-14129
▁последнего	-14130
▁послушался	-14131
▁прекрасных	-14132
▁прижимаясь	-14133
▁произнести	-14134
▁разбираюсь	-14135
▁раскинулся	-14136
▁серебряных	-14137
▁собирается	-14138
▁спрашивает	-14139
▁территорию	-14140
▁удостовери	-14141
▁Бибервельта	-14142
▁Фельдмаршал	-14143
▁душераздира	-14144
▁направилась	-14145
▁недоверчиво	-14146
▁обязанности	-14147
▁осмотрелась	-14148
▁превратился	-14149
▁преследовал	-14150
▁приподнялся	-14151
▁размахнулся	-14152
▁раскашлялся	-14153
▁рассказывал	-14154
▁собравшихся	-14155
▁удовлетвори	-14156
▁четвереньки	-14157
▁бесцеремонно	-14158
▁единственным	-14159
▁жертвенности	-14160
▁задумчивости	-14161
▁изменившимся	-14162
▁интересовало	-14163
▁неприятности	-14164
▁преследовали	-14165
▁преступления	-14166
▁рассказывала	-14167
▁самопожертво	-14168
▁торжественно	-14169
▁человеческое	-14170
▁человеческой	-14171
▁познакомиться	-14172
▁рассматривать	-14173
▁присоединиться	-14174
▁справедливости	-14175
▁ответственность	-14176
al	-14177
at	-14178
sp	-14179
st	-14180
»!	-14181
Бе	-14182
До	-14183
Ка	-14184
ел	-14185
пт	-14186
эх	-14187
яй	-14188
▁P	-14189
loe	-14190
Вер	-14191
бив	-14192
бот	-14193
бый	-14194
дио	-14195
ела	-14196
зим	-14197
зин	-14198
иму	-14199
ксы	-14200
кты	-14201
льд	-14202
льо	-14203
мит	-14204
нде	-14205
няй	-14206
пти	-14207
рут	-14208
рял	-14209
тиц	-14210
ффа	-14211
хав	-14212
чее	-14213
▁13	-14214
▁Мя	-14215
▁Ся	-14216
▁ош	-14217
▁цо	-14218
▁эй	-14219
▁ящ	-14220
беда	-14221
брал	-14222
бром	-14223
валю	-14224
варь	-14225
вите	-14226
води	-14227
вясь	-14228
гнет	-14229
гому	-14230
граф	-14231
датр	-14232
дери	-14233
дика	-14234
диты	-14235
едым	-14236
енен	-14237
жаем	-14238
ждет	-14239
идем	-14240
ктно	-14241
ктов	-14242
лает	-14243
люци	-14244
лять	-14245
мары	-14246
мотр	-14247
мыми	-14248
неся	-14249
нины	-14250
нтра	-14251
ньей	-14252
нься	-14253
озер	-14254
расс	-14255
сиво	-14256
скло	-14257
стит	-14258
сште	-14259
тает	-14260
типи	-14261
тиси	-14262
ушки	-14263
цело	-14264
часа	-14265
шусь	-14266
яние	-14267
▁ell	-14268
▁Анд	-14269
▁Аса	-14270
▁Буй	-14271
▁Выс	-14272
▁Гря	-14273
▁Дым	-14274
▁Еду	-14275
▁Иль	-14276
▁Имя	-14277
▁Лет	-14278
▁Нож	-14279
▁Ору	-14280
▁Осо	-14281
▁Оты	-14282
▁Пля	-14283
▁Руй	-14284
▁Сты	-14285
▁Туб	-14286
▁Ува	-14287
▁Уга	-14288
▁бас	-14289
▁вры	-14290
▁дес	-14291
▁лиц	-14292
▁мле	-14293
▁мош	-14294
▁муф	-14295
▁нап	-14296
▁ось	-14297
▁псы	-14298
▁сду	-14299
▁сми	-14300
▁соу	-14301
▁уху	-14302
▁учу	-14303
▁чре	-14304
▁чуд	-14305
альди	-14306
бесед	-14307
брали	-14308
водил	-14309
восвя	-14310
дайте	-14311
дебра	-14312
дными	-14313
ждала	-14314
жимал	-14315
ладно	-14316
ллент	-14317
менно	-14318
нутую	-14319
нутых	-14320
нятся	-14321
патии	-14322
пками	-14323
ретур	-14324
риков	-14325
рильо	-14326
сенна	-14327
снули	-14328
ссией	-14329
стает	-14330
стром	-14331
торго	-14332
точек	-14333
ходов	-14334
чивый	-14335
щавый	-14336
щаюсь	-14337
эрлян	-14338
▁Аэдд	-14339
▁Бабу	-14340
▁Бекк	-14341
▁Валь	-14342
▁Вере	-14343
▁Верю	-14344
▁Вили	-14345
▁Выше	-14346
▁Глас	-14347
▁Деде	-14348
▁Друи	-14349
▁Кора	-14350
▁Корч	-14351
▁Ксар	-14352
▁Лады	-14353
▁Лежи	-14354
▁Мала	-14355
▁Наем	-14356
▁Стел	-14357
▁Хиль	-14358
▁Чему	-14359
▁Штиц	-14360
▁Эхра	-14361
▁аква	-14362
▁алма	-14363
▁бага	-14364
▁бури	-14365
▁вдох	-14366
▁ведя	-14367
▁верб	-14368
▁вину	-14369
▁высы	-14370
▁глад	-14371
▁гору	-14372
▁гудя	-14373
▁езды	-14374
▁заде	-14375
▁засы	-14376
▁заще	-14377
▁зени	-14378
▁изло	-14379
▁имму	-14380
▁индю	-14381
▁иных	-14382
▁каши	-14383
▁клум	-14384
▁коже	-14385
▁козо	-14386
▁колю	-14387
▁крыш	-14388
▁купа	-14389
▁кучи	-14390
▁ларь	-14391
▁летя	-14392
▁локт	-14393
▁мала	-14394
▁меры	-14395
▁мифи	-14396
▁мула	-14397
▁намо	-14398
▁осли	-14399
▁осто	-14400
▁поед	-14401
▁попи	-14402
▁поре	-14403
▁пюпи	-14404
▁раку	-14405
▁реза	-14406
▁реша	-14407
▁розу	-14408
▁рыча	-14409
▁сене	-14410
▁сень	-14411
▁суде	-14412
▁съел	-14413
▁тете	-14414
▁тира	-14415
▁туто	-14416
▁тяну	-14417
▁убит	-14418
▁угла	-14419
▁улуч	-14420
▁умни	-14421
▁фаза	-14422
▁фиал	-14423
▁хаос	-14424
▁хаты	-14425
▁хммм	-14426
▁цита	-14427
▁чепу	-14428
▁шеле	-14429
▁шель	-14430
▁штор	-14431
▁эска	-14432
▁эффе	-14433
Лесови	-14434
аркофа	-14435
ванное	-14436
вывала	-14437
вязать	-14438
далось	-14439
девший	-14440
емости	-14441
жалось	-14442
живать	-14443
играли	-14444
казали	-14445
мастер	-14446
менова	-14447
ментом	-14448
ненное	-14449
ничать	-14450
няются	-14451
сались	-14452
скерде	-14453
тников	-14454
хаться	-14455
чиками	-14456
чников	-14457
шались	-14458
шенным	-14459
щества	-14460
▁Адали	-14461
▁Амелл	-14462
▁Башню	-14463
▁Брони	-14464
▁Встре	-14465
▁Вчера	-14466
▁Гедым	-14467
▁Гинва	-14468
▁Город	-14469
▁Дикий	-14470
▁Дрого	-14471
▁Желез	-14472
▁Жрица	-14473
▁Закон	-14474
▁Книга	-14475
▁Мерин	-14476
▁Нашел	-14477
▁Седны	-14478
▁Специ	-14479
▁Страт	-14480
▁Фигги	-14481
▁базар	-14482
▁бандю	-14483
▁башке	-14484
▁бедня	-14485
▁бедру	-14486
▁бесед	-14487
▁блюда	-14488
▁блюдо	-14489
▁болит	-14490
▁бочки	-14491
▁брата	-14492
▁бурля	-14493
▁весла	-14494
▁видят	-14495
▁викон	-14496
▁витра	-14497
▁возле	-14498
▁войта	-14499
▁вреза	-14500
▁вызим	-14501
▁выпла	-14502
▁вырос	-14503
▁гонца	-14504
▁грома	-14505
▁дикой	-14506
▁донес	-14507
▁дрянь	-14508
▁духом	-14509
▁жажда	-14510
▁живую	-14511
▁замки	-14512
▁замку	-14513
▁занят	-14514
▁запек	-14515
▁зубах	-14516
▁измер	-14517
▁имеем	-14518
▁камзо	-14519
▁клещи	-14520
▁козел	-14521
▁колье	-14522
▁конях	-14523
▁корсе	-14524
▁котле	-14525
▁крыле	-14526
▁матра	-14527
▁медли	-14528
▁мигом	-14529
▁милые	-14530
▁мокро	-14531
▁насел	-14532
▁начер	-14533
▁недол	-14534
▁нести	-14535
▁нефри	-14536
▁новым	-14537
▁ночей	-14538
▁обгло	-14539
▁обере	-14540
▁обрам	-14541
▁округ	-14542
▁ослаб	-14543
▁отпла	-14544
▁отъез	-14545
▁офице	-14546
▁охнул	-14547
▁памят	-14548
▁петух	-14549
▁плани	-14550
▁племя	-14551
▁подмо	-14552
▁подсо	-14553
▁поспо	-14554
▁потру	-14555
▁похле	-14556
▁пошле	-14557
▁приле	-14558
▁припа	-14559
▁припе	-14560
▁прояс	-14561
▁психо	-14562
▁раздо	-14563
▁резво	-14564
▁резни	-14565
▁риска	-14566
▁родом	-14567
▁руины	-14568
▁рычал	-14569
▁сбори	-14570
▁свыше	-14571
▁седой	-14572
▁серые	-14573
▁серых	-14574
▁сколо	-14575
▁слеза	-14576
▁слуги	-14577
▁снаря	-14578
▁сопли	-14579
▁танце	-14580
▁танцу	-14581
▁тепле	-14582
▁тесно	-14583
▁триви	-14584
▁трубы	-14585
▁тяжко	-14586
▁тянул	-14587
▁убере	-14588
▁уверя	-14589
▁углом	-14590
▁углуб	-14591
▁удаля	-14592
▁узкие	-14593
▁умела	-14594
▁устал	-14595
▁учила	-14596
▁халуп	-14597
▁ходит	-14598
▁хозяи	-14599
▁школе	-14600
▁школы	-14601
▁шумел	-14602
▁шумно	-14603
▁шутка	-14604
▁языка	-14605
гнулась	-14606
делаешь	-14607
жденным	-14608
зволено	-14609
милости	-14610
рование	-14611
ставлен	-14612
▁Брукса	-14613
▁Гоидем	-14614
▁Должна	-14615
▁Итлины	-14616
▁Никляр	-14617
▁Одного	-14618
▁Первая	-14619
▁Первое	-14620
▁Плотвы	-14621
▁Попыта	-14622
▁Сердце	-14623
▁Стучак	-14624
▁бараба	-14625
▁бархот	-14626
▁безору	-14627
▁бесфор	-14628
▁бесчув	-14629
▁борьбы	-14630
▁бумаги	-14631
▁верила	-14632
▁вертик	-14633
▁волоса	-14634
▁воняет	-14635
▁выбора	-14636
▁вымира	-14637
▁высоты	-14638
▁глотки	-14639
▁глядят	-14640
▁гномов	-14641
▁гожусь	-14642
▁голово	-14643
▁девицу	-14644
▁девяти	-14645
▁детали	-14646
▁дружки	-14647
▁ехидно	-14648
▁живота	-14649
▁живыми	-14650
▁жуткий	-14651
▁забрал	-14652
▁загоро	-14653
▁заплет	-14654
▁засады	-14655
▁звучно	-14656
▁земель	-14657
▁золоти	-14658
▁играют	-14659
▁иерарх	-14660
▁извлек	-14661
▁изящно	-14662
▁искали	-14663
▁каждым	-14664
▁какими	-14665
▁камине	-14666
▁колене	-14667
▁колеса	-14668
▁кордик	-14669
▁крылыш	-14670
▁легким	-14671
▁летели	-14672
▁ловчие	-14673
▁ловчий	-14674
▁мелочь	-14675
▁мертва	-14676
▁местом	-14677
▁методы	-14678
▁мокрых	-14679
▁мчался	-14680
▁мыслей	-14681
▁мыслью	-14682
▁налево	-14683
▁нарисо	-14684
▁народу	-14685
▁некуда	-14686
▁нетерп	-14687
▁нетипи	-14688
▁нужное	-14689
▁оскали	-14690
▁охраны	-14691
▁падаль	-14692
▁паркет	-14693
▁паршив	-14694
▁первая	-14695
▁плюнул	-14696
▁погодя	-14697
▁погоню	-14698
▁подопе	-14699
▁полков	-14700
▁полную	-14701
▁пороге	-14702
▁похода	-14703
▁похоро	-14704
▁предал	-14705
▁предве	-14706
▁пробор	-14707
▁пропал	-14708
▁пятеро	-14709
▁разруб	-14710
▁раскро	-14711
▁раство	-14712
▁самыми	-14713
▁скорпи	-14714
▁скрещи	-14715
▁словах	-14716
▁сложил	-14717
▁смехом	-14718
▁совето	-14719
▁солгал	-14720
▁состав	-14721
▁спешил	-14722
▁спрошу	-14723
▁старой	-14724
▁статуи	-14725
▁стащил	-14726
▁страда	-14727
▁строго	-14728
▁стянул	-14729
▁судоро	-14730
▁сурово	-14731
▁такоже	-14732
▁талант	-14733
▁тысячу	-14734
▁уйдешь	-14735
▁улочке	-14736
▁улыбку	-14737
▁умрешь	-14738
▁усилий	-14739
▁услуги	-14740
▁успеет	-14741
▁устала	-14742
▁ухмыля	-14743
▁хлопот	-14744
▁шарики	-14745
▁штучки	-14746
▁щупаль	-14747
▁эльфок	-14748
вающейся	-14749
вающимся	-14750
вающуюся	-14751
ктически	-14752
сингамен	-14753
сыпались	-14754
тировать	-14755
эльфьему	-14756
▁Боклере	-14757
▁Большое	-14758
▁Веспуля	-14759
▁Виллент	-14760
▁Висенна	-14761
▁Вставай	-14762
▁Дедушка	-14763
▁Замолчи	-14764
▁Кагыром	-14765
▁Которую	-14766
▁Который	-14767
▁Меньшее	-14768
▁Милости	-14769
▁Наталис	-14770
▁Оставим	-14771
▁Поезжай	-14772
▁Сдается	-14773
▁Снаружи	-14774
▁Тубланк	-14775
▁Услышал	-14776
▁Чародеи	-14777
▁Чудовищ	-14778
▁августа	-14779
▁агентов	-14780
▁баронес	-14781
▁бездель	-14782
▁безопас	-14783
▁водорос	-14784
▁возвыша	-14785
▁вправду	-14786
▁выбирая	-14787
▁выехали	-14788
▁выкинул	-14789
▁вырвало	-14790
▁выродок	-14791
▁выросли	-14792
▁выслуша	-14793
▁высоких	-14794
▁геммери	-14795
▁главное	-14796
▁глянуть	-14797
▁госпоже	-14798
▁громким	-14799
▁далекий	-14800
▁двимери	-14801
▁доброго	-14802
▁доверия	-14803
▁дочерью	-14804
▁жемчуга	-14805
▁женщине	-14806
▁жеребце	-14807
▁забрать	-14808
▁замаски	-14809
▁замедля	-14810
▁заместо	-14811
▁затраха	-14812
▁захваты	-14813
▁звучным	-14814
▁золотым	-14815
▁изменил	-14816
▁иллюзия	-14817
▁каждому	-14818
▁кандида	-14819
▁колонна	-14820
▁красных	-14821
▁кроваво	-14822
▁лилиями	-14823
▁манером	-14824
▁молодые	-14825
▁мужчину	-14826
▁мурашки	-14827
▁назвали	-14828
▁направо	-14829
▁нараста	-14830
▁научили	-14831
▁неверно	-14832
▁нелегко	-14833
▁нелюдей	-14834
▁непослу	-14835
▁ноздрей	-14836
▁обидеть	-14837
▁обманул	-14838
▁одеждах	-14839
▁останки	-14840
▁острыми	-14841
▁ощетини	-14842
▁палатку	-14843
▁перегля	-14844
▁передал	-14845
▁пересек	-14846
▁перехва	-14847
▁пируэте	-14848
▁погибли	-14849
▁подгото	-14850
▁подлоко	-14851
▁пожелал	-14852
▁позвоно	-14853
▁покажет	-14854
▁поклони	-14855
▁помогла	-14856
▁попоной	-14857
▁поступа	-14858
▁поцелуй	-14859
▁прикрыв	-14860
▁принцип	-14861
▁причине	-14862
▁простит	-14863
▁радости	-14864
▁раненый	-14865
▁ручаюсь	-14866
▁саркофа	-14867
▁свистом	-14868
▁сидящих	-14869
▁скромно	-14870
▁слушала	-14871
▁сменить	-14872
▁собесед	-14873
▁собрать	-14874
▁схватив	-14875
▁телегой	-14876
▁убедить	-14877
▁услышав	-14878
▁услышит	-14879
▁хорошие	-14880
▁хохотом	-14881
▁шпионов	-14882
вающегося	-14883
рованного	-14884
▁Амарильо	-14885
▁Ведьмаки	-14886
▁Гедымдей	-14887
▁Геральте	-14888
▁Ксартиси	-14889
▁Никакого	-14890
▁Отправля	-14891
▁Рассчиты	-14892
▁Результа	-14893
▁Сансрету	-14894
▁Скомлика	-14895
▁Третогор	-14896
▁Эвертсен	-14897
▁академии	-14898
▁безлюдье	-14899
▁белизной	-14900
▁большими	-14901
▁вампиров	-14902
▁вечность	-14903
▁возникли	-14904
▁войсками	-14905
▁вороного	-14906
▁вылетела	-14907
▁выполнил	-14908
▁выпрямля	-14909
▁вырвался	-14910
▁вытащили	-14911
▁глубокий	-14912
▁держится	-14913
▁договора	-14914
▁железных	-14915
▁жениться	-14916
▁завертел	-14917
▁задавать	-14918
▁избегать	-14919
▁клиентов	-14920
▁королеву	-14921
▁мазелька	-14922
▁миниатюр	-14923
▁начались	-14924
▁операции	-14925
▁опередил	-14926
▁отрезала	-14927
▁очевидно	-14928
▁парализу	-14929
▁первосвя	-14930
▁переборо	-14931
▁подтянул	-14932
▁поклоном	-14933
▁положить	-14934
▁поспешил	-14935
▁потянула	-14936
▁приготов	-14937
▁принципи	-14938
▁протерла	-14939
▁разорвал	-14940
▁расплачи	-14941
▁расступи	-14942
▁светлыми	-14943
▁смотрели	-14944
▁собирать	-14945
▁согласие	-14946
▁солдатам	-14947
▁соскочил	-14948
▁средство	-14949
▁сталбыть	-14950
▁старичок	-14951
▁странная	-14952
▁странных	-14953
▁страшные	-14954
▁страшным	-14955
▁ступенях	-14956
▁съехидни	-14957
▁тактично	-14958
▁торговли	-14959
▁традиция	-14960
▁убийство	-14961
▁услышали	-14962
▁Любопытно	-14963
▁Посмотрим	-14964
▁Почувство	-14965
▁Сансретур	-14966
▁Стражники	-14967
▁Хильдебра	-14968
▁Чародейки	-14969
▁Эльскерде	-14970
▁бестактно	-14971
▁буквально	-14972
▁василиска	-14973
▁видимости	-14974
▁выскочила	-14975
▁выхватила	-14976
▁двигалась	-14977
▁докончила	-14978
▁заботливо	-14979
▁заплясала	-14980
▁заскрежет	-14981
▁испугался	-14982
▁колоннами	-14983
▁можжевель	-14984
▁нападения	-14985
▁находятся	-14986
▁освободил	-14987
▁основании	-14988
▁оснований	-14989
▁остатками	-14990
▁отбросила	-14991
▁отскочить	-14992
▁отступила	-14993
▁очередная	-14994
▁пергамент	-14995
▁пересекли	-14996
▁погладила	-14997
▁поднялись	-14998
▁покончено	-14999
▁положении	-15000
▁попросить	-15001
▁посмотрим	-15002
▁поторопил	-15003
▁представь	-15004
▁приказала	-15005
▁принудить	-15006
▁прозвучал	-15007
▁проклятие	-15008
▁разбойник	-15009
▁рванулась	-15010
▁сверкнула	-15011
▁свободной	-15012
▁серьезные	-15013
▁спустился	-15014
▁страдания	-15015
▁удерживая	-15016
▁чародеями	-15017
▁энергично	-15018
ворачиваясь	-15019
▁Варнхагены	-15020
▁Леуваарден	-15021
▁Прекрасная	-15022
▁взорвалась	-15023
▁выхватывая	-15024
▁гигантская	-15025
▁закружился	-15026
▁инструмент	-15027
▁информации	-15028
▁наклоняясь	-15029
▁напоминает	-15030
▁необходима	-15031
▁обменялись	-15032
▁остановила	-15033
▁отказалась	-15034
▁ошибаешься	-15035
▁поддержала	-15036
▁позволения	-15037
▁попыталась	-15038
▁посыпались	-15039
▁пошевелила	-15040
▁пятидесяти	-15041
▁разгорелся	-15042
▁украшенные	-15043
▁успокоился	-15044
▁утверждает	-15045
▁ухватилась	-15046
▁цирюльника	-15047
▁эффективно	-15048
▁Брисингамен	-15049
▁Иуарраквакс	-15050
▁возбуждения	-15051
▁высморкался	-15052
▁дьявольщина	-15053
▁исключением	-15054
▁невероятной	-15055
▁нетерпеливо	-15056
▁передохнуть	-15057
▁почтительно	-15058
▁предпринима	-15059
▁случайность	-15060
▁собственная	-15061
▁собственном	-15062
▁собственную	-15063
▁способность	-15064
▁становилось	-15065
▁старательно	-15066
▁университет	-15067
▁Виллентретен	-15068
▁Предупреждаю	-15069
▁безопасность	-15070
▁внутренности	-15071
▁возбужденный	-15072
▁впоследствии	-15073
▁демонстрируя	-15074
▁использовали	-15075
▁любопытством	-15076
▁окончательно	-15077
▁преступников	-15078
▁приближалась	-15079
▁прикоснуться	-15080
▁приподнялась	-15081
▁пробормотала	-15082
[...]
